{
  "version": "1.0",
  "truncation": null,
  "padding": null,
  "added_tokens": [
    {
      "id": 0,
      "content": "[UNK]",
      "single_word": false,
      "lstrip": false,
      "rstrip": false,
      "normalized": false,
      "special": true
    },
    {
      "id": 1,
      "content": "[PAD]",
      "single_word": false,
      "lstrip": false,
      "rstrip": false,
      "normalized": false,
      "special": true
    },
    {
      "id": 2,
      "content": "[CLS]",
      "single_word": false,
      "lstrip": false,
      "rstrip": false,
      "normalized": false,
      "special": true
    },
    {
      "id": 3,
      "content": "[SEP]",
      "single_word": false,
      "lstrip": false,
      "rstrip": false,
      "normalized": false,
      "special": true
    },
    {
      "id": 4,
      "content": "[MASK]",
      "single_word": false,
      "lstrip": false,
      "rstrip": false,
      "normalized": false,
      "special": true
    }
  ],
  "normalizer": null,
  "pre_tokenizer": {
    "type": "Whitespace"
  },
  "post_processor": null,
  "decoder": null,
  "model": {
    "type": "BPE",
    "dropout": null,
    "unk_token": "[UNK]",
    "continuing_subword_prefix": null,
    "end_of_word_suffix": null,
    "fuse_unk": false,
    "byte_fallback": false,
    "ignore_merges": false,
    "vocab": {
      "[UNK]": 0,
      "[PAD]": 1,
      "[CLS]": 2,
      "[SEP]": 3,
      "[MASK]": 4,
      "؏": 5,
      "ؐ": 6,
      "ؑ": 7,
      "ؓ": 8,
      "ؔ": 9,
      "؜": 10,
      "ء": 11,
      "ؤ": 12,
      "ئ": 13,
      "ا": 14,
      "ب": 15,
      "ت": 16,
      "ث": 17,
      "ج": 18,
      "ح": 19,
      "خ": 20,
      "د": 21,
      "ذ": 22,
      "ر": 23,
      "ز": 24,
      "س": 25,
      "ش": 26,
      "ص": 27,
      "ض": 28,
      "ط": 29,
      "ظ": 30,
      "ع": 31,
      "غ": 32,
      "ػ": 33,
      "ف": 34,
      "ق": 35,
      "ك": 36,
      "ل": 37,
      "م": 38,
      "ن": 39,
      "ه": 40,
      "و": 41,
      "ي": 42,
      "٠": 43,
      "١": 44,
      "٢": 45,
      "٣": 46,
      "٤": 47,
      "٥": 48,
      "٦": 49,
      "٧": 50,
      "٨": 51,
      "٩": 52,
      "٪": 53,
      "٫": 54,
      "٬": 55,
      "ٲ": 56,
      "ٳ": 57,
      "ٴ": 58,
      "ٹ": 59,
      "ٺ": 60,
      "ٻ": 61,
      "ټ": 62,
      "ٽ": 63,
      "ٿ": 64,
      "ڀ": 65,
      "ځ": 66,
      "ڃ": 67,
      "ڄ": 68,
      "څ": 69,
      "ڇ": 70,
      "ڈ": 71,
      "ڊ": 72,
      "ڌ": 73,
      "ڏ": 74,
      "ڑ": 75,
      "ړ": 76,
      "ڔ": 77,
      "ڕ": 78,
      "ژ": 79,
      "ڙ": 80,
      "ښ": 81,
      "ڛ": 82,
      "ڜ": 83,
      "ڠ": 84,
      "ڢ": 85,
      "ڥ": 86,
      "ڨ": 87,
      "ک": 88,
      "ڪ": 89,
      "ګ": 90,
      "ڮ": 91,
      "ڰ": 92,
      "ڱ": 93,
      "ڳ": 94,
      "ڴ": 95,
      "ڷ": 96,
      "ں": 97,
      "ڻ": 98,
      "ڼ": 99,
      "ھ": 100,
      "ۀ": 101,
      "ہ": 102,
      "ۂ": 103,
      "ۃ": 104,
      "ۅ": 105,
      "ۆ": 106,
      "ۈ": 107,
      "ۉ": 108,
      "ۋ": 109,
      "ی": 110,
      "ۍ": 111,
      "ێ": 112,
      "ې": 113,
      "ۑ": 114,
      "ے": 115,
      "ۓ": 116,
      "۔": 117,
      "ە": 118,
      "ۖ": 119,
      "ۗ": 120,
      "ۘ": 121,
      "ۙ": 122,
      "ۚ": 123,
      "ۜ": 124,
      "۞": 125,
      "۟": 126,
      "ۡ": 127,
      "ۢ": 128,
      "ۣ": 129,
      "ۤ": 130,
      "ۥ": 131,
      "ۦ": 132,
      "ۧ": 133,
      "ۨ": 134,
      "ۭ": 135,
      "۰": 136,
      "۱": 137,
      "۲": 138,
      "۳": 139,
      "۴": 140,
      "۵": 141,
      "۶": 142,
      "۷": 143,
      "۸": 144,
      "۹": 145,
      "۽": 146,
      "ۿ": 147,
      "ݣ": 148,
      "ࢽ": 149,
      "ࣖ": 150,
      "ࣰ": 151,
      "ࣱ": 152,
      "﮼": 153,
      "ين": 154,
      "ال": 155,
      "يس": 156,
      "ان": 157,
      "لي": 158,
      "سو": 159,
      "ير": 160,
      "ها": 161,
      "ون": 162,
      "ات": 163,
      "ري": 164,
      "وي": 165,
      "ست": 166,
      "سي": 167,
      "اا": 168,
      "دي": 169,
      "تي": 170,
      "ور": 171,
      "با": 172,
      "ما": 173,
      "في": 174,
      "بي": 175,
      "كي": 176,
      "تت": 177,
      "اي": 178,
      "مي": 179,
      "لا": 180,
      "را": 181,
      "وس": 182,
      "تتب": 183,
      "هتتب": 184,
      "هتتبست": 185,
      "هتتبستسو": 186,
      "ار": 187,
      "وت": 188,
      "كس": 189,
      "يي": 190,
      "وو": 191,
      "ول": 192,
      "دا": 193,
      "وا": 194,
      "سا": 195,
      "يست": 196,
      "رو": 197,
      "ني": 198,
      "بو": 199,
      "شي": 200,
      "كا": 201,
      "هه": 202,
      "فا": 203,
      "قوي": 204,
      "ينت": 205,
      "علي": 206,
      "نا": 207,
      "مو": 208,
      "دو": 209,
      "كو": 210,
      "لو": 211,
      "تا": 212,
      "يني": 213,
      "ينك": 214,
      "هي": 215,
      "تو": 216,
      "ام": 217,
      "يري": 218,
      "كت": 219,
      "سون": 220,
      "يت": 221,
      "فو": 222,
      "ليس": 223,
      "باس": 224,
      "اب": 225,
      "يل": 226,
      "اف": 227,
      "مع": 228,
      "الي": 229,
      "وف": 230,
      "وني": 231,
      "كن": 232,
      "هم": 233,
      "قو": 234,
      "اس": 235,
      "بر": 236,
      "بل": 237,
      "رر": 238,
      "اند": 239,
      "انا": 240,
      "جو": 241,
      "او": 242,
      "هو": 243,
      "ديس": 244,
      "اد": 245,
      "له": 246,
      "انت": 247,
      "فر": 248,
      "زي": 249,
      "نو": 250,
      "مب": 251,
      "جي": 252,
      "اني": 253,
      "اتي": 254,
      "يسي": 255,
      "بور": 256,
      "لل": 257,
      "رج": 258,
      "بار": 259,
      "عن": 260,
      "كر": 261,
      "به": 262,
      "مر": 263,
      "اك": 264,
      "وب": 265,
      "در": 266,
      "بير": 267,
      "سور": 268,
      "اه": 269,
      "مينت": 270,
      "وم": 271,
      "فور": 272,
      "فير": 273,
      "بع": 274,
      "بال": 275,
      "بس": 276,
      "بت": 277,
      "كل": 278,
      "فين": 279,
      "انس": 280,
      "مه": 281,
      "بق": 282,
      "كان": 283,
      "اااا": 284,
      "ايت": 285,
      "الم": 286,
      "وق": 287,
      "ميس": 288,
      "دير": 289,
      "مين": 290,
      "شا": 291,
      "بين": 292,
      "كين": 293,
      "سس": 294,
      "للي": 295,
      "مان": 296,
      "من": 297,
      "وال": 298,
      "بغ": 299,
      "خل": 300,
      "سوم": 301,
      "هههه": 302,
      "هاد": 303,
      "مون": 304,
      "قل": 305,
      "يد": 306,
      "جه": 307,
      "جا": 308,
      "الا": 309,
      "عر": 310,
      "بلي": 311,
      "ريس": 312,
      "غير": 313,
      "كون": 314,
      "مايس": 315,
      "ااا": 316,
      "بلا": 317,
      "شوف": 318,
      "فال": 319,
      "مت": 320,
      "بري": 321,
      "برو": 322,
      "هاها": 323,
      "حتي": 324,
      "مد": 325,
      "حد": 326,
      "اللي": 327,
      "فت": 328,
      "قي": 329,
      "توي": 330,
      "راس": 331,
      "بن": 332,
      "فوس": 333,
      "حا": 334,
      "مير": 335,
      "تس": 336,
      "دار": 337,
      "يو": 338,
      "سيست": 339,
      "مس": 340,
      "مات": 341,
      "ديال": 342,
      "شو": 343,
      "ليها": 344,
      "لق": 345,
      "دون": 346,
      "رب": 347,
      "ينا": 348,
      "وه": 349,
      "كم": 350,
      "سير": 351,
      "لع": 352,
      "ينس": 353,
      "زو": 354,
      "حال": 355,
      "عند": 356,
      "يا": 357,
      "مار": 358,
      "ورس": 359,
      "بد": 360,
      "تر": 361,
      "خا": 362,
      "ستي": 363,
      "فف": 364,
      "الل": 365,
      "تير": 366,
      "بون": 367,
      "فيه": 368,
      "حي": 369,
      "كير": 370,
      "كات": 371,
      "ترو": 372,
      "ليه": 373,
      "فس": 374,
      "فيها": 375,
      "ثيس": 376,
      "ادي": 377,
      "موي": 378,
      "يند": 379,
      "فه": 380,
      "ولا": 381,
      "عي": 382,
      "زا": 383,
      "ليك": 384,
      "اتو": 385,
      "كك": 386,
      "تري": 387,
      "يسس": 388,
      "وكس": 389,
      "يم": 390,
      "خرج": 391,
      "اري": 392,
      "سول": 393,
      "بوت": 394,
      "الله": 395,
      "عا": 396,
      "عيني": 397,
      "شاف": 398,
      "لس": 399,
      "وري": 400,
      "تها": 401,
      "مم": 402,
      "اح": 403,
      "قه": 404,
      "مال": 405,
      "غي": 406,
      "تيس": 407,
      "الح": 408,
      "ثات": 409,
      "وهي": 410,
      "ونس": 411,
      "غت": 412,
      "يك": 413,
      "لم": 414,
      "جاي": 415,
      "يللي": 416,
      "فيس": 417,
      "كار": 418,
      "بان": 419,
      "ليا": 420,
      "سيس": 421,
      "وج": 422,
      "ره": 423,
      "بيس": 424,
      "ده": 425,
      "الس": 426,
      "بز": 427,
      "تح": 428,
      "اش": 429,
      "دس": 430,
      "قق": 431,
      "داي": 432,
      "عه": 433,
      "دانس": 434,
      "يور": 435,
      "كاي": 436,
      "دين": 437,
      "كيت": 438,
      "مح": 439,
      "باش": 440,
      "مش": 441,
      "يدي": 442,
      "يه": 443,
      "هاا": 444,
      "يكس": 445,
      "بلوس": 446,
      "مشي": 447,
      "لاه": 448,
      "فول": 449,
      "الع": 450,
      "مور": 451,
      "سان": 452,
      "نت": 453,
      "بيين": 454,
      "بب": 455,
      "توت": 456,
      "لات": 457,
      "يف": 458,
      "شوي": 459,
      "جر": 460,
      "راه": 461,
      "خر": 462,
      "علا": 463,
      "كري": 464,
      "اتيون": 465,
      "دخل": 466,
      "داك": 467,
      "فل": 468,
      "باب": 469,
      "سويس": 470,
      "فري": 471,
      "وهو": 472,
      "فايس": 473,
      "كسي": 474,
      "ووو": 475,
      "فون": 476,
      "بيل": 477,
      "دات": 478,
      "وسي": 479,
      "بط": 480,
      "سر": 481,
      "يييي": 482,
      "واحد": 483,
      "تق": 484,
      "فايت": 485,
      "ويث": 486,
      "سن": 487,
      "وسسي": 488,
      "تك": 489,
      "سل": 490,
      "نوت": 491,
      "سين": 492,
      "افيس": 493,
      "مل": 494,
      "وها": 495,
      "كانت": 496,
      "ثي": 497,
      "رررر": 498,
      "عط": 499,
      "ضح": 500,
      "بات": 501,
      "ولي": 502,
      "ضر": 503,
      "قا": 504,
      "تن": 505,
      "بها": 506,
      "سيل": 507,
      "عليها": 508,
      "دور": 509,
      "انك": 510,
      "الت": 511,
      "دد": 512,
      "غادي": 513,
      "نون": 514,
      "انسي": 515,
      "وك": 516,
      "سوب": 517,
      "وص": 518,
      "ديك": 519,
      "رك": 520,
      "بح": 521,
      "الك": 522,
      "فيي": 523,
      "بيت": 524,
      "زين": 525,
      "شه": 526,
      "هار": 527,
      "سار": 528,
      "ونا": 529,
      "بك": 530,
      "نتي": 531,
      "سك": 532,
      "بوس": 533,
      "نز": 534,
      "اها": 535,
      "شنو": 536,
      "لد": 537,
      "سونت": 538,
      "راسها": 539,
      "الو": 540,
      "فق": 541,
      "مز": 542,
      "فوي": 543,
      "تيون": 544,
      "لك": 545,
      "سيي": 546,
      "برا": 547,
      "طلع": 548,
      "بعد": 549,
      "رجع": 550,
      "سومي": 551,
      "زز": 552,
      "بول": 553,
      "حه": 554,
      "فم": 555,
      "اخ": 556,
      "سيت": 557,
      "نيي": 558,
      "واش": 559,
      "فاش": 560,
      "يتس": 561,
      "ديت": 562,
      "يرس": 563,
      "مق": 564,
      "كوي": 565,
      "افي": 566,
      "بيه": 567,
      "نع": 568,
      "ليي": 569,
      "كيس": 570,
      "عد": 571,
      "ولد": 572,
      "طو": 573,
      "طي": 574,
      "ينسي": 575,
      "جل": 576,
      "كرا": 577,
      "عليه": 578,
      "تروب": 579,
      "حاجه": 580,
      "نق": 581,
      "ييي": 582,
      "ليكي": 583,
      "واي": 584,
      "عينيها": 585,
      "موس": 586,
      "عرف": 587,
      "فاي": 588,
      "شويه": 589,
      "فيد": 590,
      "الد": 591,
      "اله": 592,
      "مره": 593,
      "زه": 594,
      "هتتبستسوق": 595,
      "فوت": 596,
      "واس": 597,
      "ود": 598,
      "تش": 599,
      "بوي": 600,
      "سري": 601,
      "است": 602,
      "كيف": 603,
      "جوست": 604,
      "دابا": 605,
      "هتتبستسوي": 606,
      "هافي": 607,
      "لوس": 608,
      "هز": 609,
      "تون": 610,
      "قواند": 611,
      "طق": 612,
      "اما": 613,
      "اتها": 614,
      "اسي": 615,
      "جور": 616,
      "دري": 617,
      "وتو": 618,
      "الخ": 619,
      "قووي": 620,
      "بريس": 621,
      "فن": 622,
      "ماشي": 623,
      "ترا": 624,
      "فع": 625,
      "الص": 626,
      "كود": 627,
      "ديد": 628,
      "كاين": 629,
      "بغيت": 630,
      "ماي": 631,
      "عاد": 632,
      "ههه": 633,
      "سوممي": 634,
      "يلس": 635,
      "فوق": 636,
      "نيس": 637,
      "ثير": 638,
      "ويلل": 639,
      "سوس": 640,
      "كول": 641,
      "فوير": 642,
      "نور": 643,
      "وور": 644,
      "وح": 645,
      "لين": 646,
      "دام": 647,
      "تف": 648,
      "لام": 649,
      "لب": 650,
      "نوس": 651,
      "ضحك": 652,
      "بحال": 653,
      "هوم": 654,
      "الش": 655,
      "ساي": 656,
      "جن": 657,
      "كيي": 658,
      "فرو": 659,
      "ثينك": 660,
      "سم": 661,
      "ينو": 662,
      "فايري": 663,
      "فراي": 664,
      "وووو": 665,
      "سوري": 666,
      "وش": 667,
      "ايا": 668,
      "حس": 669,
      "قف": 670,
      "لت": 671,
      "ونك": 672,
      "سال": 673,
      "فيا": 674,
      "بص": 675,
      "تور": 676,
      "انه": 677,
      "الط": 678,
      "ضي": 679,
      "ببي": 680,
      "حيت": 681,
      "كسو": 682,
      "كينك": 683,
      "ديري": 684,
      "علاش": 685,
      "اتش": 686,
      "خص": 687,
      "باا": 688,
      "لها": 689,
      "ونت": 690,
      "ريين": 691,
      "ماس": 692,
      "الق": 693,
      "لح": 694,
      "خد": 695,
      "ورا": 696,
      "قع": 697,
      "شير": 698,
      "لوي": 699,
      "ليفي": 700,
      "ولكن": 701,
      "ياس": 702,
      "هنا": 703,
      "ديي": 704,
      "ريي": 705,
      "كيد": 706,
      "بيي": 707,
      "جع": 708,
      "نس": 709,
      "سيد": 710,
      "فات": 711,
      "خلي": 712,
      "عار": 713,
      "قويل": 714,
      "عليك": 715,
      "قت": 716,
      "وهات": 717,
      "هد": 718,
      "سومب": 719,
      "ديل": 720,
      "ديا": 721,
      "ثيي": 722,
      "تين": 723,
      "طر": 724,
      "سلا": 725,
      "لير": 726,
      "باه": 727,
      "حط": 728,
      "غر": 729,
      "هههههههه": 730,
      "يستي": 731,
      "شان": 732,
      "يتي": 733,
      "ررر": 734,
      "ناس": 735,
      "تع": 736,
      "لوو": 737,
      "شافت": 738,
      "قبل": 739,
      "ممي": 740,
      "هتتبستسوك": 741,
      "ديو": 742,
      "طه": 743,
      "نوو": 744,
      "نن": 745,
      "فيل": 746,
      "كيني": 747,
      "ينه": 748,
      "هتتبستسوس": 749,
      "بارا": 750,
      "ويت": 751,
      "يرا": 752,
      "سمع": 753,
      "ديه": 754,
      "ينتي": 755,
      "ماري": 756,
      "ضه": 757,
      "ماا": 758,
      "طع": 759,
      "حتا": 760,
      "هوو": 761,
      "تتير": 762,
      "راسو": 763,
      "ميرسي": 764,
      "ند": 765,
      "جوي": 766,
      "جد": 767,
      "فويس": 768,
      "هادشي": 769,
      "فروم": 770,
      "مخ": 771,
      "عل": 772,
      "بتي": 773,
      "مك": 774,
      "عندو": 775,
      "باي": 776,
      "انو": 777,
      "شر": 778,
      "قول": 779,
      "بقا": 780,
      "حدا": 781,
      "صد": 782,
      "وبلي": 783,
      "سايس": 784,
      "قد": 785,
      "صر": 786,
      "مري": 787,
      "انتي": 788,
      "فار": 789,
      "جس": 790,
      "يره": 791,
      "عندها": 792,
      "موري": 793,
      "بلو": 794,
      "بيست": 795,
      "وين": 796,
      "امي": 797,
      "لوفي": 798,
      "تسو": 799,
      "بيتي": 800,
      "ليت": 801,
      "بيرسون": 802,
      "خاص": 803,
      "والو": 804,
      "غن": 805,
      "هير": 806,
      "هتتبستسوف": 807,
      "كوت": 808,
      "سلي": 809,
      "وع": 810,
      "ارد": 811,
      "لول": 812,
      "هاهاهاها": 813,
      "ميد": 814,
      "اص": 815,
      "ذا": 816,
      "واخا": 817,
      "سيون": 818,
      "زيد": 819,
      "تاس": 820,
      "كنت": 821,
      "نه": 822,
      "تيلي": 823,
      "وز": 824,
      "اللاه": 825,
      "سيتي": 826,
      "اع": 827,
      "نتا": 828,
      "بكي": 829,
      "قرب": 830,
      "فها": 831,
      "لار": 832,
      "بيك": 833,
      "اوسسي": 834,
      "كسكس": 835,
      "ته": 836,
      "فرا": 837,
      "ضرب": 838,
      "قر": 839,
      "فان": 840,
      "فك": 841,
      "بنت": 842,
      "تاي": 843,
      "بخ": 844,
      "الن": 845,
      "شار": 846,
      "سرو": 847,
      "ينتير": 848,
      "تيمي": 849,
      "ويل": 850,
      "لاس": 851,
      "لكن": 852,
      "ماد": 853,
      "راب": 854,
      "يرو": 855,
      "نيو": 856,
      "ساس": 857,
      "ميت": 858,
      "هيس": 859,
      "جمع": 860,
      "صافي": 861,
      "بدا": 862,
      "مزي": 863,
      "شيس": 864,
      "وفف": 865,
      "مني": 866,
      "ريق": 867,
      "يع": 868,
      "حق": 869,
      "معاه": 870,
      "حر": 871,
      "توس": 872,
      "بريند": 873,
      "هتتبستسوكس": 874,
      "اود": 875,
      "ميل": 876,
      "ابر": 877,
      "توييت": 878,
      "قلب": 879,
      "امب": 880,
      "جين": 881,
      "ابوت": 882,
      "ارت": 883,
      "كد": 884,
      "اء": 885,
      "هاس": 886,
      "بويس": 887,
      "حت": 888,
      "وكي": 889,
      "مدر": 890,
      "ميه": 891,
      "ستا": 892,
      "عينيه": 893,
      "اوت": 894,
      "فيني": 895,
      "بلاص": 896,
      "بتد": 897,
      "شوو": 898,
      "ماكي": 899,
      "هادي": 900,
      "ثر": 901,
      "غا": 902,
      "قويس": 903,
      "معاها": 904,
      "بف": 905,
      "يوكس": 906,
      "عليا": 907,
      "بيو": 908,
      "درا": 909,
      "خط": 910,
      "تل": 911,
      "سوي": 912,
      "كتكت": 913,
      "عندي": 914,
      "حده": 915,
      "شعر": 916,
      "نان": 917,
      "وهين": 918,
      "يلل": 919,
      "باسك": 920,
      "جوستي": 921,
      "يلي": 922,
      "ديما": 923,
      "يديها": 924,
      "وايس": 925,
      "هتتبستسوز": 926,
      "يدو": 927,
      "الج": 928,
      "اار": 929,
      "ثان": 930,
      "وانا": 931,
      "بلاي": 932,
      "موت": 933,
      "مبا": 934,
      "نير": 935,
      "بيوبلي": 936,
      "ميلي": 937,
      "ماما": 938,
      "مغ": 939,
      "الباب": 940,
      "فكر": 941,
      "كلشي": 942,
      "حل": 943,
      "ياك": 944,
      "جب": 945,
      "فيك": 946,
      "بيها": 947,
      "بياو": 948,
      "ويي": 949,
      "ااه": 950,
      "راي": 951,
      "حش": 952,
      "هتتبتسو": 953,
      "وخ": 954,
      "مشات": 955,
      "ناض": 956,
      "قء": 957,
      "جري": 958,
      "موع": 959,
      "وان": 960,
      "يريس": 961,
      "مشا": 962,
      "دونت": 963,
      "جات": 964,
      "هيم": 965,
      "فد": 966,
      "ليل": 967,
      "باح": 968,
      "شات": 969,
      "سيتتي": 970,
      "بقات": 971,
      "عنق": 972,
      "سيا": 973,
      "زير": 974,
      "معاك": 975,
      "بيا": 976,
      "وغ": 977,
      "لان": 978,
      "هتتبستسوه": 979,
      "مص": 980,
      "كيل": 981,
      "وتي": 982,
      "جاب": 983,
      "هضر": 984,
      "دان": 985,
      "وما": 986,
      "فاوت": 987,
      "ديالو": 988,
      "كوا": 989,
      "ويري": 990,
      "كور": 991,
      "خي": 992,
      "فط": 993,
      "تيد": 994,
      "فوللوو": 995,
      "سوممينت": 996,
      "الر": 997,
      "فلي": 998,
      "سام": 999,
      "ارري": 1000,
      "بيري": 1001,
      "نفس": 1002,
      "مام": 1003,
      "بليس": 1004,
      "هااا": 1005,
      "كنوو": 1006,
      "جاو": 1007,
      "واا": 1008,
      "فاسي": 1009,
      "فهم": 1010,
      "جلس": 1011,
      "جام": 1012,
      "تحت": 1013,
      "ايس": 1014,
      "كست": 1015,
      "هن": 1016,
      "كني": 1017,
      "يسسي": 1018,
      "معا": 1019,
      "يفيري": 1020,
      "ماء": 1021,
      "عو": 1022,
      "كينس": 1023,
      "هتتبستسود": 1024,
      "ريال": 1025,
      "نهار": 1026,
      "ساه": 1027,
      "اوكس": 1028,
      "اجي": 1029,
      "دوز": 1030,
      "سينت": 1031,
      "تيي": 1032,
      "فيري": 1033,
      "حيد": 1034,
      "وجه": 1035,
      "شكون": 1036,
      "كتشوف": 1037,
      "سلو": 1038,
      "وات": 1039,
      "وقف": 1040,
      "روي": 1041,
      "قدر": 1042,
      "خرجات": 1043,
      "كامي": 1044,
      "دها": 1045,
      "ونيس": 1046,
      "عائ": 1047,
      "كاا": 1048,
      "سامي": 1049,
      "سات": 1050,
      "وحده": 1051,
      "ماني": 1052,
      "فيوكس": 1053,
      "ريا": 1054,
      "عع": 1055,
      "بدات": 1056,
      "فاس": 1057,
      "وقت": 1058,
      "داكشي": 1059,
      "قدام": 1060,
      "زع": 1061,
      "ءء": 1062,
      "هتتبستسوج": 1063,
      "بزاف": 1064,
      "عمر": 1065,
      "تال": 1066,
      "رام": 1067,
      "ريب": 1068,
      "الورس": 1069,
      "اول": 1070,
      "تان": 1071,
      "تايت": 1072,
      "راسي": 1073,
      "والله": 1074,
      "مبس": 1075,
      "ثيري": 1076,
      "عص": 1077,
      "جامايس": 1078,
      "ولو": 1079,
      "هتتبستسور": 1080,
      "اكي": 1081,
      "لون": 1082,
      "طلق": 1083,
      "منها": 1084,
      "سيري": 1085,
      "غات": 1086,
      "يمب": 1087,
      "ييس": 1088,
      "حح": 1089,
      "مها": 1090,
      "جوج": 1091,
      "قغ": 1092,
      "راسك": 1093,
      "كوم": 1094,
      "دارت": 1095,
      "كاس": 1096,
      "زر": 1097,
      "سامه": 1098,
      "هان": 1099,
      "اج": 1100,
      "شام": 1101,
      "هر": 1102,
      "فح": 1103,
      "قات": 1104,
      "سونتري": 1105,
      "عس": 1106,
      "بغي": 1107,
      "جاجا": 1108,
      "لاي": 1109,
      "بج": 1110,
      "منو": 1111,
      "زوج": 1112,
      "تخ": 1113,
      "ابلي": 1114,
      "يديه": 1115,
      "هزات": 1116,
      "ميي": 1117,
      "عندك": 1118,
      "امين": 1119,
      "ميني": 1120,
      "غان": 1121,
      "شحال": 1122,
      "اده": 1123,
      "زن": 1124,
      "معايا": 1125,
      "بوك": 1126,
      "ودي": 1127,
      "مج": 1128,
      "ينسوري": 1129,
      "بوتي": 1130,
      "دخلات": 1131,
      "ويا": 1132,
      "قال": 1133,
      "موسي": 1134,
      "باغي": 1135,
      "كه": 1136,
      "ستر": 1137,
      "كيشوف": 1138,
      "بابا": 1139,
      "هيا": 1140,
      "محمد": 1141,
      "بيللي": 1142,
      "درو": 1143,
      "دوس": 1144,
      "وانت": 1145,
      "بريسي": 1146,
      "ملي": 1147,
      "باست": 1148,
      "لور": 1149,
      "هيري": 1150,
      "خلا": 1151,
      "يوس": 1152,
      "ريت": 1153,
      "دوي": 1154,
      "كال": 1155,
      "يح": 1156,
      "مرا": 1157,
      "راا": 1158,
      "زل": 1159,
      "تويتتير": 1160,
      "تيش": 1161,
      "هون": 1162,
      "رين": 1163,
      "هتتبستسون": 1164,
      "قخ": 1165,
      "فرايمينت": 1166,
      "فيست": 1167,
      "حبي": 1168,
      "بوو": 1169,
      "ليلي": 1170,
      "ييل": 1171,
      "وفير": 1172,
      "ستري": 1173,
      "سيف": 1174,
      "سولو": 1175,
      "جورس": 1176,
      "قص": 1177,
      "فران": 1178,
      "موش": 1179,
      "دونس": 1180,
      "هبط": 1181,
      "جسويس": 1182,
      "خير": 1183,
      "نمشي": 1184,
      "تيل": 1185,
      "كيفاش": 1186,
      "صل": 1187,
      "سولي": 1188,
      "وله": 1189,
      "ديها": 1190,
      "وار": 1191,
      "شيي": 1192,
      "شعرها": 1193,
      "وون": 1194,
      "فرح": 1195,
      "فب": 1196,
      "ومي": 1197,
      "كوو": 1198,
      "از": 1199,
      "نيه": 1200,
      "ثين": 1201,
      "وند": 1202,
      "كتر": 1203,
      "حنا": 1204,
      "وسس": 1205,
      "باري": 1206,
      "كلا": 1207,
      "طل": 1208,
      "موها": 1209,
      "موست": 1210,
      "بش": 1211,
      "انيا": 1212,
      "ديالها": 1213,
      "بريمي": 1214,
      "بورت": 1215,
      "اين": 1216,
      "باد": 1217,
      "هيي": 1218,
      "بقي": 1219,
      "بيلي": 1220,
      "فيت": 1221,
      "مزال": 1222,
      "كاع": 1223,
      "ديم": 1224,
      "رات": 1225,
      "تما": 1226,
      "بيوت": 1227,
      "مبلي": 1228,
      "حن": 1229,
      "فخ": 1230,
      "واد": 1231,
      "هاي": 1232,
      "ريكار": 1233,
      "كرو": 1234,
      "مول": 1235,
      "ثانك": 1236,
      "ااك": 1237,
      "خخ": 1238,
      "ناي": 1239,
      "نيفير": 1240,
      "تص": 1241,
      "اره": 1242,
      "سانس": 1243,
      "بوست": 1244,
      "الغ": 1245,
      "عب": 1246,
      "فوري": 1247,
      "فيهم": 1248,
      "ااف": 1249,
      "بارلي": 1250,
      "قك": 1251,
      "نيا": 1252,
      "ارس": 1253,
      "باقي": 1254,
      "ييت": 1255,
      "سوير": 1256,
      "صوت": 1257,
      "مزيان": 1258,
      "ديف": 1259,
      "ااات": 1260,
      "رادي": 1261,
      "هتتبستسوب": 1262,
      "اليس": 1263,
      "دم": 1264,
      "كسس": 1265,
      "راك": 1266,
      "نج": 1267,
      "كام": 1268,
      "بيرسونني": 1269,
      "موندي": 1270,
      "مست": 1271,
      "يندي": 1272,
      "دوك": 1273,
      "فج": 1274,
      "الام": 1275,
      "غاي": 1276,
      "لاح": 1277,
      "ريد": 1278,
      "تاكي": 1279,
      "خه": 1280,
      "بغيتي": 1281,
      "كلي": 1282,
      "ونلي": 1283,
      "اق": 1284,
      "بيب": 1285,
      "اااااااا": 1286,
      "ساب": 1287,
      "قلت": 1288,
      "لبس": 1289,
      "جالس": 1290,
      "بيد": 1291,
      "شوفو": 1292,
      "يما": 1293,
      "دخ": 1294,
      "كانو": 1295,
      "واج": 1296,
      "داد": 1297,
      "ينتري": 1298,
      "صباح": 1299,
      "يستير": 1300,
      "وقع": 1301,
      "ارر": 1302,
      "سنا": 1303,
      "سب": 1304,
      "دويس": 1305,
      "مض": 1306,
      "تتي": 1307,
      "ينيس": 1308,
      "تيمبس": 1309,
      "حواي": 1310,
      "ينتس": 1311,
      "شف": 1312,
      "غوت": 1313,
      "هام": 1314,
      "ثيم": 1315,
      "قط": 1316,
      "هتتبستسوء": 1317,
      "سيم": 1318,
      "نينك": 1319,
      "بدل": 1320,
      "ههههه": 1321,
      "رف": 1322,
      "كاري": 1323,
      "كمل": 1324,
      "فيللي": 1325,
      "واق": 1326,
      "مييللي": 1327,
      "وقال": 1328,
      "عين": 1329,
      "سوسي": 1330,
      "الدار": 1331,
      "خرجو": 1332,
      "بوسي": 1333,
      "فلو": 1334,
      "ناا": 1335,
      "وط": 1336,
      "فييل": 1337,
      "ميللي": 1338,
      "اتت": 1339,
      "ثيير": 1340,
      "سانت": 1341,
      "كروس": 1342,
      "شع": 1343,
      "داس": 1344,
      "يز": 1345,
      "كلو": 1346,
      "فرانسي": 1347,
      "هتتبستسول": 1348,
      "حاول": 1349,
      "جيت": 1350,
      "مبير": 1351,
      "قس": 1352,
      "ويش": 1353,
      "هاهاها": 1354,
      "سوبير": 1355,
      "عام": 1356,
      "ميسس": 1357,
      "اتيونس": 1358,
      "مالي": 1359,
      "دز": 1360,
      "ويس": 1361,
      "فلا": 1362,
      "وولد": 1363,
      "هتتبستسوغ": 1364,
      "توب": 1365,
      "شش": 1366,
      "قح": 1367,
      "بابي": 1368,
      "طا": 1369,
      "ابت": 1370,
      "اتهم": 1371,
      "ااش": 1372,
      "دك": 1373,
      "بم": 1374,
      "مدرررر": 1375,
      "سوتي": 1376,
      "كامل": 1377,
      "ضره": 1378,
      "بولي": 1379,
      "بلان": 1380,
      "مدررر": 1381,
      "هوا": 1382,
      "لينا": 1383,
      "غل": 1384,
      "رياد": 1385,
      "بينسي": 1386,
      "نيت": 1387,
      "خار": 1388,
      "ربي": 1389,
      "انن": 1390,
      "ميمي": 1391,
      "فاتي": 1392,
      "شيت": 1393,
      "ورو": 1394,
      "اوي": 1395,
      "فمها": 1396,
      "فاء": 1397,
      "سالي": 1398,
      "عق": 1399,
      "لما": 1400,
      "دج": 1401,
      "قطع": 1402,
      "ءغ": 1403,
      "استي": 1404,
      "اخر": 1405,
      "هتتبستسوت": 1406,
      "الف": 1407,
      "كز": 1408,
      "جيه": 1409,
      "دوني": 1410,
      "وريس": 1411,
      "انها": 1412,
      "اهئ": 1413,
      "هيل": 1414,
      "فينك": 1415,
      "بنات": 1416,
      "ليست": 1417,
      "الاه": 1418,
      "باك": 1419,
      "جمي": 1420,
      "تار": 1421,
      "جود": 1422,
      "داخل": 1423,
      "مبي": 1424,
      "ستار": 1425,
      "توو": 1426,
      "ريه": 1427,
      "خاي": 1428,
      "شين": 1429,
      "ريستي": 1430,
      "فاك": 1431,
      "وصل": 1432,
      "مسح": 1433,
      "ذي": 1434,
      "ارا": 1435,
      "وقالت": 1436,
      "هتتبستسوخ": 1437,
      "الث": 1438,
      "ليهم": 1439,
      "ويد": 1440,
      "شيز": 1441,
      "لوك": 1442,
      "ريل": 1443,
      "كراند": 1444,
      "توداي": 1445,
      "فيسي": 1446,
      "عارف": 1447,
      "سسي": 1448,
      "ويه": 1449,
      "ايمي": 1450,
      "توني": 1451,
      "ونو": 1452,
      "انيس": 1453,
      "شاي": 1454,
      "ليور": 1455,
      "وسا": 1456,
      "ملا": 1457,
      "بله": 1458,
      "سمي": 1459,
      "داز": 1460,
      "يار": 1461,
      "حو": 1462,
      "فكس": 1463,
      "اندو": 1464,
      "ارض": 1465,
      "مكن": 1466,
      "هاببي": 1467,
      "هاش": 1468,
      "تيام": 1469,
      "يش": 1470,
      "بونني": 1471,
      "ندير": 1472,
      "بسي": 1473,
      "عليهم": 1474,
      "كره": 1475,
      "فز": 1476,
      "افوير": 1477,
      "جك": 1478,
      "زينب": 1479,
      "يسو": 1480,
      "رون": 1481,
      "وكت": 1482,
      "يوسف": 1483,
      "باسي": 1484,
      "جاد": 1485,
      "ساعه": 1486,
      "قوون": 1487,
      "فيينس": 1488,
      "فيديو": 1489,
      "يسون": 1490,
      "وسط": 1491,
      "بيوكس": 1492,
      "قوه": 1493,
      "شفت": 1494,
      "فينت": 1495,
      "الز": 1496,
      "الما": 1497,
      "رها": 1498,
      "بلياسي": 1499,
      "شاد": 1500,
      "كينيا": 1501,
      "وره": 1502,
      "بصوت": 1503,
      "مدرر": 1504,
      "بارت": 1505,
      "بتدرررر": 1506,
      "رح": 1507,
      "فيرست": 1508,
      "ورجع": 1509,
      "ناضت": 1510,
      "سما": 1511,
      "ديالي": 1512,
      "يكون": 1513,
      "نييد": 1514,
      "سخ": 1515,
      "عاود": 1516,
      "كتا": 1517,
      "يستا": 1518,
      "حرك": 1519,
      "قاد": 1520,
      "ايه": 1521,
      "وجهها": 1522,
      "فيو": 1523,
      "اسسي": 1524,
      "انيه": 1525,
      "جيب": 1526,
      "بغات": 1527,
      "كويس": 1528,
      "داير": 1529,
      "طط": 1530,
      "سوننا": 1531,
      "شيد": 1532,
      "اليد": 1533,
      "التي": 1534,
      "هاكا": 1535,
      "اسس": 1536,
      "بشويه": 1537,
      "عج": 1538,
      "تات": 1539,
      "ااااا": 1540,
      "بكس": 1541,
      "عم": 1542,
      "ترومب": 1543,
      "عيط": 1544,
      "احبي": 1545,
      "قالت": 1546,
      "صه": 1547,
      "ابو": 1548,
      "توري": 1549,
      "كيه": 1550,
      "فاست": 1551,
      "الحال": 1552,
      "قيه": 1553,
      "كريات": 1554,
      "فيق": 1555,
      "يسيال": 1556,
      "لخ": 1557,
      "حاج": 1558,
      "زاد": 1559,
      "نين": 1560,
      "ندي": 1561,
      "لايس": 1562,
      "انتس": 1563,
      "نزل": 1564,
      "مالك": 1565,
      "دموع": 1566,
      "السو": 1567,
      "هتتبستسوط": 1568,
      "موبيل": 1569,
      "كولشي": 1570,
      "لبي": 1571,
      "هوبي": 1572,
      "قدا": 1573,
      "اكاين": 1574,
      "ثو": 1575,
      "مكي": 1576,
      "دوش": 1577,
      "دوون": 1578,
      "لاست": 1579,
      "ستيلل": 1580,
      "لابس": 1581,
      "افتير": 1582,
      "جها": 1583,
      "نف": 1584,
      "الري": 1585,
      "جبد": 1586,
      "الوقت": 1587,
      "دت": 1588,
      "لف": 1589,
      "كرافي": 1590,
      "حم": 1591,
      "فرييند": 1592,
      "جيس": 1593,
      "فلوس": 1594,
      "كيتس": 1595,
      "حياه": 1596,
      "ستير": 1597,
      "كولي": 1598,
      "كب": 1599,
      "لعب": 1600,
      "ميتت": 1601,
      "داا": 1602,
      "مومينت": 1603,
      "ديست": 1604,
      "سويت": 1605,
      "تمشي": 1606,
      "نيوس": 1607,
      "يين": 1608,
      "وكل": 1609,
      "ديوكس": 1610,
      "ريم": 1611,
      "كككك": 1612,
      "حك": 1613,
      "بيز": 1614,
      "كبير": 1615,
      "قوير": 1616,
      "غدا": 1617,
      "الب": 1618,
      "كنتي": 1619,
      "مشيت": 1620,
      "هور": 1621,
      "ضرو": 1622,
      "يفين": 1623,
      "موا": 1624,
      "روس": 1625,
      "لباب": 1626,
      "ساري": 1627,
      "ييه": 1628,
      "رياللي": 1629,
      "فيتي": 1630,
      "قولي": 1631,
      "نش": 1632,
      "نشوف": 1633,
      "قلبها": 1634,
      "قويللي": 1635,
      "ستوب": 1636,
      "اير": 1637,
      "بهي": 1638,
      "نها": 1639,
      "فونت": 1640,
      "بلاسك": 1641,
      "رير": 1642,
      "تايس": 1643,
      "كينري": 1644,
      "مكت": 1645,
      "يام": 1646,
      "تيك": 1647,
      "كرات": 1648,
      "فوتري": 1649,
      "جاس": 1650,
      "لاا": 1651,
      "ينتين": 1652,
      "فياو": 1653,
      "بوب": 1654,
      "ايي": 1655,
      "شاا": 1656,
      "انكي": 1657,
      "توجورس": 1658,
      "دق": 1659,
      "نك": 1660,
      "وتوبي": 1661,
      "ساسا": 1662,
      "عرفت": 1663,
      "بوم": 1664,
      "الناس": 1665,
      "تكون": 1666,
      "ءع": 1667,
      "سكي": 1668,
      "لوت": 1669,
      "فحال": 1670,
      "باسسي": 1671,
      "بغا": 1672,
      "سبي": 1673,
      "فهاد": 1674,
      "اكو": 1675,
      "اوا": 1676,
      "ينتو": 1677,
      "جاا": 1678,
      "ليني": 1679,
      "ليكس": 1680,
      "دول": 1681,
      "منين": 1682,
      "يدها": 1683,
      "يخ": 1684,
      "اليا": 1685,
      "مادي": 1686,
      "دبا": 1687,
      "ديبويس": 1688,
      "بيرو": 1689,
      "فيز": 1690,
      "شوفي": 1691,
      "هذا": 1692,
      "خدا": 1693,
      "قب": 1694,
      "شوت": 1695,
      "لله": 1696,
      "امير": 1697,
      "راء": 1698,
      "بوليسي": 1699,
      "سيو": 1700,
      "زيي": 1701,
      "ماين": 1702,
      "بيند": 1703,
      "الدين": 1704,
      "لقا": 1705,
      "سيدي": 1706,
      "ريغت": 1707,
      "تيم": 1708,
      "صح": 1709,
      "سوفيد": 1710,
      "بتسامه": 1711,
      "نات": 1712,
      "فش": 1713,
      "ليم": 1714,
      "يوري": 1715,
      "ينني": 1716,
      "ليد": 1717,
      "دايس": 1718,
      "ءق": 1719,
      "تيللي": 1720,
      "عنقها": 1721,
      "هاب": 1722,
      "واتش": 1723,
      "جاه": 1724,
      "اكا": 1725,
      "راكي": 1726,
      "وجهو": 1727,
      "اندي": 1728,
      "ريسي": 1729,
      "شولد": 1730,
      "بينك": 1731,
      "يوتوبي": 1732,
      "بيني": 1733,
      "ميوف": 1734,
      "بنا": 1735,
      "غط": 1736,
      "نيك": 1737,
      "بريندري": 1738,
      "مريم": 1739,
      "ريك": 1740,
      "ماه": 1741,
      "ينيي": 1742,
      "طريق": 1743,
      "فيرس": 1744,
      "دوم": 1745,
      "هيين": 1746,
      "صغير": 1747,
      "نورس": 1748,
      "بايس": 1749,
      "يله": 1750,
      "اور": 1751,
      "ءخ": 1752,
      "عاا": 1753,
      "سيما": 1754,
      "مط": 1755,
      "ورت": 1756,
      "اااااا": 1757,
      "اللير": 1758,
      "حسن": 1759,
      "زال": 1760,
      "يسا": 1761,
      "تاني": 1762,
      "يلا": 1763,
      "المو": 1764,
      "تيني": 1765,
      "جهد": 1766,
      "هههههههههههههههه": 1767,
      "ماروس": 1768,
      "جان": 1769,
      "عاي": 1770,
      "افانت": 1771,
      "نار": 1772,
      "ثه": 1773,
      "دغ": 1774,
      "روح": 1775,
      "اتيد": 1776,
      "مبري": 1777,
      "متو": 1778,
      "سرا": 1779,
      "سورس": 1780,
      "كوينك": 1781,
      "وورلد": 1782,
      "اليوم": 1783,
      "ابنتي": 1784,
      "ثانكس": 1785,
      "وقفات": 1786,
      "مييوكس": 1787,
      "اندير": 1788,
      "وندير": 1789,
      "ادا": 1790,
      "ساا": 1791,
      "ماتش": 1792,
      "بلاصه": 1793,
      "كش": 1794,
      "تاسم": 1795,
      "كق": 1796,
      "قلبي": 1797,
      "ستوري": 1798,
      "فيوت": 1799,
      "وسيس": 1800,
      "بنتي": 1801,
      "هيست": 1802,
      "جيو": 1803,
      "بزااف": 1804,
      "موسيس": 1805,
      "سورد": 1806,
      "بيينك": 1807,
      "بالل": 1808,
      "مسا": 1809,
      "هيوري": 1810,
      "حطات": 1811,
      "اوسي": 1812,
      "اوس": 1813,
      "مف": 1814,
      "رس": 1815,
      "تشوف": 1816,
      "تروس": 1817,
      "بقاو": 1818,
      "هكا": 1819,
      "هوي": 1820,
      "ناتيون": 1821,
      "هيت": 1822,
      "بوينت": 1823,
      "ماك": 1824,
      "جون": 1825,
      "لاش": 1826,
      "سانا": 1827,
      "ستو": 1828,
      "سولد": 1829,
      "جنب": 1830,
      "سارا": 1831,
      "كيا": 1832,
      "معر": 1833,
      "نص": 1834,
      "بارك": 1835,
      "فريي": 1836,
      "يلاه": 1837,
      "موو": 1838,
      "يلليس": 1839,
      "بورقووي": 1840,
      "ككس": 1841,
      "تيز": 1842,
      "تيليفون": 1843,
      "اليكس": 1844,
      "راجل": 1845,
      "ميري": 1846,
      "باسس": 1847,
      "وفي": 1848,
      "سيمبلي": 1849,
      "شفاي": 1850,
      "هتتبستسوح": 1851,
      "اليه": 1852,
      "ءه": 1853,
      "هتتبستسوع": 1854,
      "بروت": 1855,
      "نوي": 1856,
      "بيض": 1857,
      "ساكي": 1858,
      "كوس": 1859,
      "بارسي": 1860,
      "كتبكي": 1861,
      "لينك": 1862,
      "فاف": 1863,
      "توتي": 1864,
      "راني": 1865,
      "لقات": 1866,
      "منك": 1867,
      "رعه": 1868,
      "ساوسي": 1869,
      "سيه": 1870,
      "نطق": 1871,
      "طلعات": 1872,
      "ونتي": 1873,
      "ينش": 1874,
      "دمه": 1875,
      "ءح": 1876,
      "وبين": 1877,
      "اهي": 1878,
      "ختي": 1879,
      "سود": 1880,
      "قوو": 1881,
      "كينه": 1882,
      "جوس": 1883,
      "هادا": 1884,
      "سه": 1885,
      "ايد": 1886,
      "صدر": 1887,
      "سوت": 1888,
      "حلات": 1889,
      "ثيسي": 1890,
      "زينه": 1891,
      "تبع": 1892,
      "قيس": 1893,
      "تنهد": 1894,
      "بني": 1895,
      "شدات": 1896,
      "نوم": 1897,
      "الض": 1898,
      "دينت": 1899,
      "بودي": 1900,
      "متا": 1901,
      "حداها": 1902,
      "ميردي": 1903,
      "بيير": 1904,
      "ممم": 1905,
      "ومك": 1906,
      "فينير": 1907,
      "اصلا": 1908,
      "واقف": 1909,
      "يالاه": 1910,
      "سوني": 1911,
      "اليي": 1912,
      "رجعات": 1913,
      "غو": 1914,
      "سيلي": 1915,
      "وهيري": 1916,
      "ويللي": 1917,
      "مهم": 1918,
      "لونك": 1919,
      "سايد": 1920,
      "وير": 1921,
      "عائشه": 1922,
      "لدار": 1923,
      "فيان": 1924,
      "ميز": 1925,
      "بيساوسي": 1926,
      "قوا": 1927,
      "عش": 1928,
      "هوما": 1929,
      "بتن": 1930,
      "فء": 1931,
      "ورد": 1932,
      "كيند": 1933,
      "عماد": 1934,
      "السي": 1935,
      "ورك": 1936,
      "باين": 1937,
      "والي": 1938,
      "الشي": 1939,
      "راج": 1940,
      "سونسي": 1941,
      "قز": 1942,
      "عات": 1943,
      "ينست": 1944,
      "كيلي": 1945,
      "يمكن": 1946,
      "فتح": 1947,
      "خليني": 1948,
      "اااش": 1949,
      "فيين": 1950,
      "منا": 1951,
      "ظه": 1952,
      "ريف": 1953,
      "بلاسي": 1954,
      "بابتسامه": 1955,
      "مكس": 1956,
      "سومبتي": 1957,
      "تلا": 1958,
      "نخ": 1959,
      "نوض": 1960,
      "فهد": 1961,
      "سكت": 1962,
      "فوسك": 1963,
      "توحش": 1964,
      "بالي": 1965,
      "مكان": 1966,
      "نض": 1967,
      "تيلل": 1968,
      "بتو": 1969,
      "سالل": 1970,
      "جج": 1971,
      "سوف": 1972,
      "ااس": 1973,
      "الاس": 1974,
      "سسس": 1975,
      "بوا": 1976,
      "سينس": 1977,
      "تز": 1978,
      "ثاتس": 1979,
      "زيبي": 1980,
      "كارس": 1981,
      "واللاه": 1982,
      "شاء": 1983,
      "فض": 1984,
      "هدر": 1985,
      "نورسين": 1986,
      "باغ": 1987,
      "يفي": 1988,
      "البنت": 1989,
      "طح": 1990,
      "نوتري": 1991,
      "سرويس": 1992,
      "غرفه": 1993,
      "بصح": 1994,
      "ماتي": 1995,
      "هيه": 1996,
      "انني": 1997,
      "يعني": 1998,
      "خدي": 1999,
      "يوم": 2000,
      "سش": 2001,
      "ديسي": 2002,
      "بعيد": 2003,
      "بتس": 2004,
      "كيرل": 2005,
      "شيل": 2006,
      "وخرج": 2007,
      "يونس": 2008,
      "دخلو": 2009,
      "تتينك": 2010,
      "عت": 2011,
      "ديز": 2012,
      "ساد": 2013,
      "باريس": 2014,
      "الوايس": 2015,
      "بعض": 2016,
      "مويس": 2017,
      "ومن": 2018,
      "طاح": 2019,
      "وجها": 2020,
      "مود": 2021,
      "فوند": 2022,
      "اوو": 2023,
      "كيم": 2024,
      "سيول": 2025,
      "قن": 2026,
      "فالم": 2027,
      "جهه": 2028,
      "اااه": 2029,
      "راديوسي": 2030,
      "اخري": 2031,
      "شوسي": 2032,
      "طوي": 2033,
      "الكل": 2034,
      "سيوكس": 2035,
      "ريو": 2036,
      "بسك": 2037,
      "الان": 2038,
      "ييار": 2039,
      "ذه": 2040,
      "تجي": 2041,
      "ثا": 2042,
      "فيلي": 2043,
      "عني": 2044,
      "ساو": 2045,
      "شيب": 2046,
      "وتيس": 2047,
      "غز": 2048,
      "غيت": 2049,
      "ريتور": 2050,
      "ينف": 2051,
      "ولات": 2052,
      "نيست": 2053,
      "معاهم": 2054,
      "يفير": 2055,
      "صب": 2056,
      "داه": 2057,
      "تاح": 2058,
      "لاند": 2059,
      "ريمي": 2060,
      "سوممين": 2061,
      "ولدي": 2062,
      "تاج": 2063,
      "بزز": 2064,
      "اسد": 2065,
      "ضع": 2066,
      "ليسس": 2067,
      "نيغت": 2068,
      "وليس": 2069,
      "جولي": 2070,
      "اتا": 2071,
      "درت": 2072,
      "قلبو": 2073,
      "غغ": 2074,
      "نظ": 2075,
      "تلي": 2076,
      "حخ": 2077,
      "موني": 2078,
      "جوري": 2079,
      "بيتيت": 2080,
      "عبد": 2081,
      "بجوج": 2082,
      "شيه": 2083,
      "برد": 2084,
      "متي": 2085,
      "خاا": 2086,
      "بء": 2087,
      "عصام": 2088,
      "الون": 2089,
      "هما": 2090,
      "فورت": 2091,
      "كف": 2092,
      "العر": 2093,
      "سينسي": 2094,
      "غرب": 2095,
      "فورسي": 2096,
      "كيو": 2097,
      "عادي": 2098,
      "يروس": 2099,
      "ميتتري": 2100,
      "حاا": 2101,
      "بقيت": 2102,
      "هومي": 2103,
      "ديلي": 2104,
      "ريفي": 2105,
      "زان": 2106,
      "ناديا": 2107,
      "عارفه": 2108,
      "تيميس": 2109,
      "مييلليور": 2110,
      "فيند": 2111,
      "ياا": 2112,
      "فتن": 2113,
      "ريقه": 2114,
      "تبس": 2115,
      "كلها": 2116,
      "قكس": 2117,
      "زار": 2118,
      "عقل": 2119,
      "رجليها": 2120,
      "قويستيون": 2121,
      "اتك": 2122,
      "حب": 2123,
      "بهوتو": 2124,
      "قرا": 2125,
      "سيين": 2126,
      "عها": 2127,
      "فيول": 2128,
      "عندهم": 2129,
      "يستيس": 2130,
      "بارتي": 2131,
      "موينس": 2132,
      "سافي": 2133,
      "جتي": 2134,
      "روو": 2135,
      "كتب": 2136,
      "مينتس": 2137,
      "ابتسامه": 2138,
      "حسات": 2139,
      "ليتت": 2140,
      "لال": 2141,
      "بوكس": 2142,
      "فيش": 2143,
      "ييك": 2144,
      "تاا": 2145,
      "موم": 2146,
      "فود": 2147,
      "بوسسي": 2148,
      "توك": 2149,
      "تالك": 2150,
      "باغا": 2151,
      "حج": 2152,
      "جرها": 2153,
      "وليد": 2154,
      "عض": 2155,
      "ساره": 2156,
      "نول": 2157,
      "هوه": 2158,
      "ناعس": 2159,
      "يجي": 2160,
      "يسب": 2161,
      "ييا": 2162,
      "ليو": 2163,
      "كوير": 2164,
      "فاا": 2165,
      "للا": 2166,
      "بوحد": 2167,
      "ياسر": 2168,
      "نجي": 2169,
      "كايت": 2170,
      "يستس": 2171,
      "سيرا": 2172,
      "سسو": 2173,
      "كيفي": 2174,
      "وييك": 2175,
      "ياسين": 2176,
      "كوك": 2177,
      "ديالك": 2178,
      "تاري": 2179,
      "جت": 2180,
      "ولل": 2181,
      "رجه": 2182,
      "سع": 2183,
      "بكل": 2184,
      "اسماء": 2185,
      "زات": 2186,
      "يستو": 2187,
      "بيتتير": 2188,
      "اللو": 2189,
      "رجل": 2190,
      "نيسي": 2191,
      "دونني": 2192,
      "بيلل": 2193,
      "واه": 2194,
      "اتتيند": 2195,
      "شاب": 2196,
      "فمو": 2197,
      "المر": 2198,
      "جار": 2199,
      "فويل": 2200,
      "شها": 2201,
      "ماريا": 2202,
      "ئه": 2203,
      "كاتي": 2204,
      "حاب": 2205,
      "جبل": 2206,
      "سوميوني": 2207,
      "فيلا": 2208,
      "ضار": 2209,
      "الليز": 2210,
      "كيش": 2211,
      "دفع": 2212,
      "شانكي": 2213,
      "حياتي": 2214,
      "هههههه": 2215,
      "رد": 2216,
      "عطي": 2217,
      "وشي": 2218,
      "خفي": 2219,
      "درتي": 2220,
      "بيبي": 2221,
      "فالا": 2222,
      "يسير": 2223,
      "اختي": 2224,
      "ونه": 2225,
      "دوري": 2226,
      "ليب": 2227,
      "فاه": 2228,
      "سوننايس": 2229,
      "بتدررر": 2230,
      "جوهن": 2231,
      "ويلي": 2232,
      "ريح": 2233,
      "افايت": 2234,
      "صو": 2235,
      "قلف": 2236,
      "سورر": 2237,
      "حاس": 2238,
      "تغ": 2239,
      "فيممي": 2240,
      "سلمي": 2241,
      "برود": 2242,
      "لوب": 2243,
      "ففي": 2244,
      "اناا": 2245,
      "زعما": 2246,
      "واقفه": 2247,
      "ييارس": 2248,
      "داتي": 2249,
      "جوا": 2250,
      "الها": 2251,
      "غخ": 2252,
      "منه": 2253,
      "خاف": 2254,
      "لاب": 2255,
      "جز": 2256,
      "حيه": 2257,
      "وبي": 2258,
      "مالا": 2259,
      "يياه": 2260,
      "دخلت": 2261,
      "عينو": 2262,
      "تيلليمينت": 2263,
      "دل": 2264,
      "رق": 2265,
      "وايت": 2266,
      "خويا": 2267,
      "المع": 2268,
      "ميدي": 2269,
      "دوو": 2270,
      "هاز": 2271,
      "جورن": 2272,
      "ضيه": 2273,
      "بحر": 2274,
      "دال": 2275,
      "ليله": 2276,
      "بسرعه": 2277,
      "فيلم": 2278,
      "سمح": 2279,
      "ينفيي": 2280,
      "تروفي": 2281,
      "كاما": 2282,
      "صور": 2283,
      "كتكتكتكت": 2284,
      "جالسه": 2285,
      "جدي": 2286,
      "وسو": 2287,
      "الفر": 2288,
      "قدرش": 2289,
      "افريس": 2290,
      "ستاند": 2291,
      "بوني": 2292,
      "ديرني": 2293,
      "ييز": 2294,
      "جفايس": 2295,
      "فوو": 2296,
      "كح": 2297,
      "زوينه": 2298,
      "ريز": 2299,
      "عيش": 2300,
      "وورك": 2301,
      "كثر": 2302,
      "فاط": 2303,
      "تابع": 2304,
      "ايوا": 2305,
      "كينت": 2306,
      "بره": 2307,
      "تجر": 2308,
      "سورري": 2309,
      "وتا": 2310,
      "وفاء": 2311,
      "ليون": 2312,
      "اليت": 2313,
      "حدي": 2314,
      "مورنينك": 2315,
      "بانت": 2316,
      "ييد": 2317,
      "ماغ": 2318,
      "مبو": 2319,
      "نزر": 2320,
      "فيير": 2321,
      "شخص": 2322,
      "راحه": 2323,
      "كوزينه": 2324,
      "يدير": 2325,
      "ينكس": 2326,
      "تيزين": 2327,
      "مراد": 2328,
      "لاو": 2329,
      "حداه": 2330,
      "خق": 2331,
      "ينكي": 2332,
      "بارلير": 2333,
      "لط": 2334,
      "كنا": 2335,
      "راديوسيتيزين": 2336,
      "زيز": 2337,
      "ميا": 2338,
      "ستيون": 2339,
      "ارريفي": 2340,
      "تاع": 2341,
      "راديوسيتيزينفم": 2342,
      "وهوا": 2343,
      "سونس": 2344,
      "يون": 2345,
      "توبه": 2346,
      "سوبي": 2347,
      "سومو": 2348,
      "يييييييي": 2349,
      "كسك": 2350,
      "ركه": 2351,
      "سد": 2352,
      "هيلب": 2353,
      "كرسي": 2354,
      "فورم": 2355,
      "اودي": 2356,
      "موه": 2357,
      "صا": 2358,
      "بارح": 2359,
      "ناه": 2360,
      "ران": 2361,
      "بوش": 2362,
      "غمض": 2363,
      "ديماين": 2364,
      "وثير": 2365,
      "ءط": 2366,
      "بياوسوب": 2367,
      "جول": 2368,
      "هاهاه": 2369,
      "باراكا": 2370,
      "كيلل": 2371,
      "فيدي": 2372,
      "سيكس": 2373,
      "جلسات": 2374,
      "ريان": 2375,
      "زيدي": 2376,
      "عرفو": 2377,
      "زق": 2378,
      "سيلف": 2379,
      "ديمان": 2380,
      "رجال": 2381,
      "برياك": 2382,
      "وسك": 2383,
      "ادم": 2384,
      "بتدر": 2385,
      "جديد": 2386,
      "ومشات": 2387,
      "ستريام": 2388,
      "الحمد": 2389,
      "ينن": 2390,
      "توما": 2391,
      "كوني": 2392,
      "هتتبستسوم": 2393,
      "ثمان": 2394,
      "يماكيني": 2395,
      "ففيس": 2396,
      "اوتري": 2397,
      "بقوه": 2398,
      "الهضره": 2399,
      "شد": 2400,
      "سوو": 2401,
      "فوكس": 2402,
      "نورمال": 2403,
      "مودي": 2404,
      "فرج": 2405,
      "غار": 2406,
      "ماكس": 2407,
      "امل": 2408,
      "باكي": 2409,
      "زوين": 2410,
      "طات": 2411,
      "واللي": 2412,
      "وكا": 2413,
      "سق": 2414,
      "طلب": 2415,
      "ترانس": 2416,
      "سورون": 2417,
      "طيح": 2418,
      "ايل": 2419,
      "يسيس": 2420,
      "سينك": 2421,
      "سكس": 2422,
      "شن": 2423,
      "داري": 2424,
      "خديجه": 2425,
      "بيور": 2426,
      "دغيا": 2427,
      "الارض": 2428,
      "ماع": 2429,
      "ينسروي": 2430,
      "فتي": 2431,
      "يشوف": 2432,
      "ثرو": 2433,
      "ريست": 2434,
      "كمال": 2435,
      "ستب": 2436,
      "صدرو": 2437,
      "عطيني": 2438,
      "هدا": 2439,
      "لقيت": 2440,
      "ءي": 2441,
      "وففيس": 2442,
      "طار": 2443,
      "فص": 2444,
      "باسها": 2445,
      "نيكست": 2446,
      "نسبه": 2447,
      "بوبليس": 2448,
      "نمشيو": 2449,
      "نقول": 2450,
      "الخير": 2451,
      "لقي": 2452,
      "باها": 2453,
      "سيني": 2454,
      "ليتس": 2455,
      "اااف": 2456,
      "هدي": 2457,
      "كنير": 2458,
      "الات": 2459,
      "ماو": 2460,
      "صي": 2461,
      "تيونس": 2462,
      "دونالد": 2463,
      "بدون": 2464,
      "قدامو": 2465,
      "لمي": 2466,
      "اكيد": 2467,
      "كييب": 2468,
      "ضحكه": 2469,
      "دويت": 2470,
      "لاز": 2471,
      "فاكي": 2472,
      "النا": 2473,
      "ديني": 2474,
      "عكس": 2475,
      "وففيسيال": 2476,
      "باتي": 2477,
      "لتحت": 2478,
      "ميتي": 2479,
      "علينا": 2480,
      "هيغ": 2481,
      "ففف": 2482,
      "الاخ": 2483,
      "هاني": 2484,
      "تكت": 2485,
      "هوممي": 2486,
      "سيند": 2487,
      "فيينت": 2488,
      "وبدات": 2489,
      "بلاصتها": 2490,
      "سويور": 2491,
      "هارون": 2492,
      "مورت": 2493,
      "ورده": 2494,
      "ضب": 2495,
      "وكاي": 2496,
      "ريري": 2497,
      "حمر": 2498,
      "اام": 2499,
      "راف": 2500,
      "اشنو": 2501,
      "لوسي": 2502,
      "ضور": 2503,
      "رايسون": 2504,
      "ونسي": 2505,
      "خو": 2506,
      "سونك": 2507,
      "نامي": 2508,
      "نسا": 2509,
      "شكرا": 2510,
      "تانت": 2511,
      "ايام": 2512,
      "تاك": 2513,
      "ليورس": 2514,
      "خدمه": 2515,
      "ياسمين": 2516,
      "بريندس": 2517,
      "زاي": 2518,
      "كلام": 2519,
      "انسيس": 2520,
      "مده": 2521,
      "اتيس": 2522,
      "هات": 2523,
      "نعاس": 2524,
      "حلي": 2525,
      "لايسسي": 2526,
      "كسد": 2527,
      "هاند": 2528,
      "اسا": 2529,
      "عرفتي": 2530,
      "بيرسو": 2531,
      "توييتس": 2532,
      "ثوسي": 2533,
      "شووف": 2534,
      "معرفت": 2535,
      "افيز": 2536,
      "بهوني": 2537,
      "كيز": 2538,
      "الحاجه": 2539,
      "دموعها": 2540,
      "ماش": 2541,
      "طبي": 2542,
      "بعدا": 2543,
      "اليمينت": 2544,
      "اسر": 2545,
      "وود": 2546,
      "راببي": 2547,
      "ينسرويابلي": 2548,
      "سوسو": 2549,
      "تقت": 2550,
      "مرو": 2551,
      "كيور": 2552,
      "دوء": 2553,
      "ابل": 2554,
      "اتينك": 2555,
      "زوي": 2556,
      "جير": 2557,
      "ريبلي": 2558,
      "نيش": 2559,
      "غق": 2560,
      "كوفير": 2561,
      "بيفوري": 2562,
      "وصلو": 2563,
      "قوب": 2564,
      "المي": 2565,
      "هوسي": 2566,
      "شاري": 2567,
      "دن": 2568,
      "صاح": 2569,
      "بسق": 2570,
      "ينيد": 2571,
      "سوق": 2572,
      "ريسبيست": 2573,
      "لعندو": 2574,
      "دددد": 2575,
      "روت": 2576,
      "تييس": 2577,
      "وتف": 2578,
      "جيي": 2579,
      "اتس": 2580,
      "فسي": 2581,
      "ليش": 2582,
      "قلتي": 2583,
      "كريم": 2584,
      "جسب": 2585,
      "فيدو": 2586,
      "هتتبستسوا": 2587,
      "نح": 2588,
      "مااا": 2589,
      "روب": 2590,
      "مادري": 2591,
      "يفيريوني": 2592,
      "هتتبستسويي": 2593,
      "بلوي": 2594,
      "ماق": 2595,
      "بيدي": 2596,
      "بانو": 2597,
      "ميش": 2598,
      "يندو": 2599,
      "ممكن": 2600,
      "بهو": 2601,
      "كلمه": 2602,
      "واقع": 2603,
      "مث": 2604,
      "خلو": 2605,
      "ميرا": 2606,
      "زينك": 2607,
      "ينفوي": 2608,
      "ثينكس": 2609,
      "قدامها": 2610,
      "ضوع": 2611,
      "شاو": 2612,
      "كله": 2613,
      "اكثر": 2614,
      "ايلا": 2615,
      "ميان": 2616,
      "بياوتي": 2617,
      "مرح": 2618,
      "عائله": 2619,
      "وهيا": 2620,
      "اات": 2621,
      "هوس": 2622,
      "يان": 2623,
      "اكل": 2624,
      "شاقوي": 2625,
      "بود": 2626,
      "شفايفها": 2627,
      "ينير": 2628,
      "تنه": 2629,
      "ييييي": 2630,
      "زيل": 2631,
      "هيد": 2632,
      "سالا": 2633,
      "ليسي": 2634,
      "صغيره": 2635,
      "تتا": 2636,
      "زك": 2637,
      "طول": 2638,
      "سوش": 2639,
      "سيولي": 2640,
      "هاتي": 2641,
      "مانا": 2642,
      "شور": 2643,
      "كسق": 2644,
      "ميسسي": 2645,
      "وصلات": 2646,
      "راري": 2647,
      "تاب": 2648,
      "ققق": 2649,
      "زياد": 2650,
      "سوروناف": 2651,
      "رعد": 2652,
      "تهم": 2653,
      "هياد": 2654,
      "رغ": 2655,
      "كسن": 2656,
      "سونتر": 2657,
      "بلاد": 2658,
      "بريميير": 2659,
      "اهم": 2660,
      "برون": 2661,
      "اولدي": 2662,
      "اسك": 2663,
      "وول": 2664,
      "بسب": 2665,
      "دوا": 2666,
      "بداو": 2667,
      "شفتي": 2668,
      "تخرج": 2669,
      "مشاو": 2670,
      "دريس": 2671,
      "وكان": 2672,
      "لوكس": 2673,
      "سفب": 2674,
      "المهم": 2675,
      "كيرس": 2676,
      "خلات": 2677,
      "بعيني": 2678,
      "اللا": 2679,
      "داء": 2680,
      "ليوم": 2681,
      "رور": 2682,
      "مروي": 2683,
      "دايره": 2684,
      "غالي": 2685,
      "اميني": 2686,
      "بريف": 2687,
      "لعندها": 2688,
      "سيللي": 2689,
      "ااب": 2690,
      "ميك": 2691,
      "كسر": 2692,
      "بقاي": 2693,
      "مممم": 2694,
      "ندو": 2695,
      "طوموبيل": 2696,
      "رينت": 2697,
      "ادو": 2698,
      "كيب": 2699,
      "نوضي": 2700,
      "لج": 2701,
      "لبيت": 2702,
      "لادي": 2703,
      "نعمه": 2704,
      "بروبل": 2705,
      "غتس": 2706,
      "همس": 2707,
      "موفي": 2708,
      "ومشا": 2709,
      "سيكن": 2710,
      "سومبلي": 2711,
      "مهدي": 2712,
      "سورونافيروس": 2713,
      "تروي": 2714,
      "اوجور": 2715,
      "لابسه": 2716,
      "نعس": 2717,
      "خرجت": 2718,
      "وكو": 2719,
      "رؤ": 2720,
      "غه": 2721,
      "وبا": 2722,
      "يالله": 2723,
      "بوري": 2724,
      "تيمينت": 2725,
      "البنات": 2726,
      "ونني": 2727,
      "ديسسوس": 2728,
      "حيط": 2729,
      "اذا": 2730,
      "هاه": 2731,
      "وناض": 2732,
      "اتتين": 2733,
      "ستوت": 2734,
      "شوب": 2735,
      "حركات": 2736,
      "جف": 2737,
      "اوك": 2738,
      "السا": 2739,
      "سسسس": 2740,
      "مبق": 2741,
      "غاديش": 2742,
      "شانسي": 2743,
      "ريكاردي": 2744,
      "قاطع": 2745,
      "خت": 2746,
      "مادا": 2747,
      "صبر": 2748,
      "يب": 2749,
      "يريد": 2750,
      "ااد": 2751,
      "احم": 2752,
      "رقيه": 2753,
      "رار": 2754,
      "نر": 2755,
      "ستاي": 2756,
      "اكسي": 2757,
      "كوننا": 2758,
      "ووا": 2759,
      "سونفير": 2760,
      "خاط": 2761,
      "لياد": 2762,
      "المره": 2763,
      "ولت": 2764,
      "نويت": 2765,
      "مارا": 2766,
      "صف": 2767,
      "تفكر": 2768,
      "بريسسيون": 2769,
      "بيندانت": 2770,
      "كوف": 2771,
      "اولي": 2772,
      "ابا": 2773,
      "ستور": 2774,
      "موتي": 2775,
      "هيهي": 2776,
      "فاطمه": 2777,
      "كلم": 2778,
      "زد": 2779,
      "شامبي": 2780,
      "كسه": 2781,
      "لويس": 2782,
      "سوبلي": 2783,
      "اشي": 2784,
      "هيب": 2785,
      "ماكيس": 2786,
      "شغ": 2787,
      "زهره": 2788,
      "بغيك": 2789,
      "طان": 2790,
      "ليري": 2791,
      "بيليي": 2792,
      "ديفين": 2793,
      "ناش": 2794,
      "ايات": 2795,
      "غس": 2796,
      "هتتبت": 2797,
      "اويلي": 2798,
      "متن": 2799,
      "وومين": 2800,
      "عليكم": 2801,
      "ابسولو": 2802,
      "راين": 2803,
      "موهاميد": 2804,
      "كوب": 2805,
      "ينسول": 2806,
      "النهار": 2807,
      "جق": 2808,
      "سلوب": 2809,
      "ماينتين": 2810,
      "ميديا": 2811,
      "جوين": 2812,
      "اغ": 2813,
      "خارج": 2814,
      "دافيد": 2815,
      "دوينك": 2816,
      "فاميلي": 2817,
      "دينك": 2818,
      "ديرو": 2819,
      "توش": 2820,
      "باندي": 2821,
      "دازت": 2822,
      "فالي": 2823,
      "ومع": 2824,
      "يندري": 2825,
      "اسو": 2826,
      "لاق": 2827,
      "قيقه": 2828,
      "كوري": 2829,
      "بهاد": 2830,
      "سني": 2831,
      "اان": 2832,
      "نيشان": 2833,
      "كيك": 2834,
      "مكاين": 2835,
      "تنهدات": 2836,
      "سيلل": 2837,
      "تودي": 2838,
      "جيتي": 2839,
      "قتل": 2840,
      "ستيس": 2841,
      "ستان": 2842,
      "يندا": 2843,
      "ساكت": 2844,
      "فويت": 2845,
      "راها": 2846,
      "بلاتي": 2847,
      "كاب": 2848,
      "سومبريس": 2849,
      "واخه": 2850,
      "راق": 2851,
      "جال": 2852,
      "ريش": 2853,
      "سورسي": 2854,
      "سونتي": 2855,
      "تحل": 2856,
      "اكوي": 2857,
      "المش": 2858,
      "تقول": 2859,
      "نيسس": 2860,
      "خرا": 2861,
      "لعند": 2862,
      "اتتا": 2863,
      "هيار": 2864,
      "للح": 2865,
      "صدرها": 2866,
      "روك": 2867,
      "موسيه": 2868,
      "تريس": 2869,
      "سوميثينك": 2870,
      "فولل": 2871,
      "كتجري": 2872,
      "فيلليس": 2873,
      "ماكا": 2874,
      "ناري": 2875,
      "باول": 2876,
      "اكرام": 2877,
      "بزاااف": 2878,
      "طال": 2879,
      "فقط": 2880,
      "زس": 2881,
      "خال": 2882,
      "بتستوت": 2883,
      "خاطر": 2884,
      "مونيي": 2885,
      "قويين": 2886,
      "كسف": 2887,
      "باط": 2888,
      "حام": 2889,
      "شيسك": 2890,
      "فيم": 2891,
      "قربات": 2892,
      "نرجع": 2893,
      "نيتي": 2894,
      "ابي": 2895,
      "وهيش": 2896,
      "عف": 2897,
      "بلس": 2898,
      "ميكس": 2899,
      "ويو": 2900,
      "متك": 2901,
      "لقاها": 2902,
      "بقاش": 2903,
      "انتيس": 2904,
      "الطريق": 2905,
      "برينسي": 2906,
      "نب": 2907,
      "الماتش": 2908,
      "بعه": 2909,
      "كوون": 2910,
      "روم": 2911,
      "نوتي": 2912,
      "هاديك": 2913,
      "هاهاهاه": 2914,
      "فيفي": 2915,
      "يمشي": 2916,
      "يحيي": 2917,
      "واكي": 2918,
      "شيف": 2919,
      "توتيس": 2920,
      "نيد": 2921,
      "اورا": 2922,
      "الحاج": 2923,
      "فاهم": 2924,
      "سيسي": 2925,
      "هين": 2926,
      "وبدا": 2927,
      "حواج": 2928,
      "ينسو": 2929,
      "مايل": 2930,
      "وااا": 2931,
      "سومينك": 2932,
      "اميريس": 2933,
      "حيل": 2934,
      "ككك": 2935,
      "ااان": 2936,
      "بتها": 2937,
      "هتتبستسوو": 2938,
      "كيتا": 2939,
      "وهيتي": 2940,
      "ثرياد": 2941,
      "سينون": 2942,
      "سيتو": 2943,
      "موسول": 2944,
      "قلق": 2945,
      "راديو": 2946,
      "فرييندس": 2947,
      "ديسير": 2948,
      "كولو": 2949,
      "زون": 2950,
      "حف": 2951,
      "اذ": 2952,
      "فانس": 2953,
      "غيث": 2954,
      "ظهر": 2955,
      "تيق": 2956,
      "باسسير": 2957,
      "ساك": 2958,
      "فعينيها": 2959,
      "هارد": 2960,
      "عمي": 2961,
      "ينين": 2962,
      "هانا": 2963,
      "بيهم": 2964,
      "فرحه": 2965,
      "منهم": 2966,
      "لوه": 2967,
      "فشي": 2968,
      "سيك": 2969,
      "لوكي": 2970,
      "كبر": 2971,
      "جوو": 2972,
      "بدي": 2973,
      "ميهدي": 2974,
      "زت": 2975,
      "معه": 2976,
      "خلاها": 2977,
      "زاين": 2978,
      "جم": 2979,
      "اوسون": 2980,
      "جاجاجاجا": 2981,
      "عاون": 2982,
      "كينير": 2983,
      "فوتي": 2984,
      "رض": 2985,
      "كتو": 2986,
      "مارو": 2987,
      "نزار": 2988,
      "كاملين": 2989,
      "ستاتي": 2990,
      "سيمب": 2991,
      "بيدو": 2992,
      "اسين": 2993,
      "وخا": 2994,
      "كيط": 2995,
      "بينس": 2996,
      "ييم": 2997,
      "حمل": 2998,
      "عثمان": 2999,
      "بوكي": 3000,
      "ولاد": 3001,
      "شاده": 3002,
      "طن": 3003,
      "عيب": 3004,
      "بيسوين": 3005,
      "كيللي": 3006,
      "سونتين": 3007,
      "جكس": 3008,
      "كيضحك": 3009,
      "اتوري": 3010,
      "اوتريس": 3011,
      "هيير": 3012,
      "سمر": 3013,
      "فوتبالل": 3014,
      "زيني": 3015,
      "جوه": 3016,
      "ميند": 3017,
      "ماينتينانت": 3018,
      "جسس": 3019,
      "شافها": 3020,
      "ينتا": 3021,
      "يق": 3022,
      "البيت": 3023,
      "صبيه": 3024,
      "كراسي": 3025,
      "ريتي": 3026,
      "تاسمات": 3027,
      "تراين": 3028,
      "ميست": 3029,
      "ناء": 3030,
      "تيست": 3031,
      "ينسيس": 3032,
      "احمد": 3033,
      "يكي": 3034,
      "انوثير": 3035,
      "بيرسوننيس": 3036,
      "ديدنت": 3037,
      "ليار": 3038,
      "ياله": 3039,
      "سيفي": 3040,
      "عغ": 3041,
      "شاود": 3042,
      "شدها": 3043,
      "هيلل": 3044,
      "بوسسيبلي": 3045,
      "وتر": 3046,
      "دارو": 3047,
      "دف": 3048,
      "توا": 3049,
      "كالي": 3050,
      "ينفين": 3051,
      "سميه": 3052,
      "بوتاين": 3053,
      "ووه": 3054,
      "نزلات": 3055,
      "دود": 3056,
      "سمعات": 3057,
      "اممم": 3058,
      "ليالي": 3059,
      "بوليس": 3060,
      "لاد": 3061,
      "سيلوي": 3062,
      "صوني": 3063,
      "داها": 3064,
      "سابي": 3065,
      "بيتش": 3066,
      "سورت": 3067,
      "بوسس": 3068,
      "معانا": 3069,
      "بريسيدينت": 3070,
      "فاميللي": 3071,
      "فينال": 3072,
      "افايس": 3073,
      "ساسي": 3074,
      "ديريست": 3075,
      "لورد": 3076,
      "بشي": 3077,
      "ساش": 3078,
      "الكا": 3079,
      "ناتيونال": 3080,
      "لص": 3081,
      "نيل": 3082,
      "ديجا": 3083,
      "صدق": 3084,
      "زيت": 3085,
      "ميين": 3086,
      "وث": 3087,
      "وحتي": 3088,
      "فدب": 3089,
      "للدار": 3090,
      "ملامح": 3091,
      "كاكي": 3092,
      "جيهه": 3093,
      "كسل": 3094,
      "مازال": 3095,
      "وهيلي": 3096,
      "ضحكات": 3097,
      "وففيسي": 3098,
      "جلي": 3099,
      "وض": 3100,
      "يعقوب": 3101,
      "حاله": 3102,
      "ميو": 3103,
      "كولا": 3104,
      "وتس": 3105,
      "يسسو": 3106,
      "هورس": 3107,
      "رابي": 3108,
      "شيري": 3109,
      "كيتتينك": 3110,
      "ومار": 3111,
      "نيار": 3112,
      "سونسير": 3113,
      "كاتشوف": 3114,
      "تاين": 3115,
      "سونكرات": 3116,
      "دييو": 3117,
      "كذ": 3118,
      "اسراء": 3119,
      "شيماء": 3120,
      "ابه": 3121,
      "دياد": 3122,
      "الحب": 3123,
      "غاا": 3124,
      "ديفي": 3125,
      "كراندي": 3126,
      "دينا": 3127,
      "عجب": 3128,
      "غيثه": 3129,
      "فايتيس": 3130,
      "حنان": 3131,
      "تسمع": 3132,
      "هاكي": 3133,
      "تيه": 3134,
      "كبيره": 3135,
      "فرر": 3136,
      "مينوتيس": 3137,
      "كامله": 3138,
      "سوسس": 3139,
      "تيا": 3140,
      "احسن": 3141,
      "نكون": 3142,
      "فاري": 3143,
      "ناعسه": 3144,
      "يونك": 3145,
      "وليت": 3146,
      "اللور": 3147,
      "بريسس": 3148,
      "صاا": 3149,
      "ريقو": 3150,
      "خف": 3151,
      "ساللي": 3152,
      "امور": 3153,
      "دورمير": 3154,
      "ثس": 3155,
      "تفليكس": 3156,
      "شهر": 3157,
      "قها": 3158,
      "بتاسم": 3159,
      "تروفير": 3160,
      "ونتا": 3161,
      "كريي": 3162,
      "ليف": 3163,
      "صبع": 3164,
      "بهوت": 3165,
      "كع": 3166,
      "فنفس": 3167,
      "اميس": 3168,
      "ليز": 3169,
      "نكو": 3170,
      "خدم": 3171,
      "فالارض": 3172,
      "والا": 3173,
      "شريس": 3174,
      "تول": 3175,
      "اليتي": 3176,
      "شافتو": 3177,
      "ديماندي": 3178,
      "ليهاا": 3179,
      "باند": 3180,
      "لن": 3181,
      "جيد": 3182,
      "تونيغت": 3183,
      "بروس": 3184,
      "ليفت": 3185,
      "سترو": 3186,
      "احبيبه": 3187,
      "لغ": 3188,
      "نننن": 3189,
      "بابلي": 3190,
      "ساسس": 3191,
      "تابلي": 3192,
      "رايس": 3193,
      "لوسك": 3194,
      "ليتتلي": 3195,
      "سوفي": 3196,
      "كء": 3197,
      "الحق": 3198,
      "ترافاي": 3199,
      "ينيسس": 3200,
      "كاني": 3201,
      "اسيل": 3202,
      "مابغ": 3203,
      "تيستي": 3204,
      "بايير": 3205,
      "حوايج": 3206,
      "واااا": 3207,
      "فوسكينك": 3208,
      "اوكي": 3209,
      "لقاو": 3210,
      "فالل": 3211,
      "هتتبستسويس": 3212,
      "كوال": 3213,
      "مرض": 3214,
      "هاذ": 3215,
      "ريسبون": 3216,
      "جايمي": 3217,
      "الشخص": 3218,
      "اميره": 3219,
      "تعط": 3220,
      "الطبيب": 3221,
      "سشول": 3222,
      "راح": 3223,
      "بزر": 3224,
      "فييو": 3225,
      "ماكني": 3226,
      "سوه": 3227,
      "كما": 3228,
      "سناب": 3229,
      "موكي": 3230,
      "اتور": 3231,
      "سايت": 3232,
      "الاب": 3233,
      "رال": 3234,
      "الدنيا": 3235,
      "وخرجات": 3236,
      "طير": 3237,
      "توم": 3238,
      "ودخل": 3239,
      "سيب": 3240,
      "كوكو": 3241,
      "مبغ": 3242,
      "البوم": 3243,
      "ترجع": 3244,
      "مينيست": 3245,
      "ديرايت": 3246,
      "ليتير": 3247,
      "لهاد": 3248,
      "بييي": 3249,
      "صير": 3250,
      "ريمان": 3251,
      "لبسات": 3252,
      "سونترا": 3253,
      "طبع": 3254,
      "ااي": 3255,
      "عرض": 3256,
      "كروسسي": 3257,
      "ودا": 3258,
      "تخل": 3259,
      "زيف": 3260,
      "شيني": 3261,
      "لشي": 3262,
      "بلادي": 3263,
      "وصافي": 3264,
      "قويبي": 3265,
      "ومو": 3266,
      "بورتس": 3267,
      "ساف": 3268,
      "درويت": 3269,
      "ليستين": 3270,
      "لمك": 3271,
      "كدا": 3272,
      "وتت": 3273,
      "بعصبيه": 3274,
      "سلام": 3275,
      "زوني": 3276,
      "خغ": 3277,
      "كونا": 3278,
      "رت": 3279,
      "كاد": 3280,
      "طلعو": 3281,
      "سلاسسي": 3282,
      "اللح": 3283,
      "نوفيللي": 3284,
      "كتحس": 3285,
      "سبا": 3286,
      "طوات": 3287,
      "سوممون": 3288,
      "كسز": 3289,
      "هكاك": 3290,
      "شيمينت": 3291,
      "ايم": 3292,
      "كتح": 3293,
      "يقول": 3294,
      "نسر": 3295,
      "فيستي": 3296,
      "حع": 3297,
      "هول": 3298,
      "جميله": 3299,
      "كريس": 3300,
      "اكاينست": 3301,
      "ابرا": 3302,
      "ومه": 3303,
      "فغ": 3304,
      "روسي": 3305,
      "تحر": 3306,
      "كاينه": 3307,
      "تفو": 3308,
      "وست": 3309,
      "بياوتيفول": 3310,
      "ببس": 3311,
      "يليس": 3312,
      "ماعرفت": 3313,
      "نيها": 3314,
      "سياسون": 3315,
      "ئام": 3316,
      "تست": 3317,
      "ماند": 3318,
      "سالام": 3319,
      "بيرث": 3320,
      "فلوو": 3321,
      "مانه": 3322,
      "ززز": 3323,
      "ناصر": 3324,
      "ريبي": 3325,
      "كتش": 3326,
      "رؤيا": 3327,
      "شافو": 3328,
      "موشي": 3329,
      "يسسا": 3330,
      "خرجي": 3331,
      "بلات": 3332,
      "فيهاا": 3333,
      "اتنا": 3334,
      "ذوي": 3335,
      "جيبو": 3336,
      "يريا": 3337,
      "لياكوي": 3338,
      "الجو": 3339,
      "وراه": 3340,
      "بااا": 3341,
      "نوثينك": 3342,
      "فريس": 3343,
      "بايي": 3344,
      "الحاله": 3345,
      "ساع": 3346,
      "سليي": 3347,
      "خصوص": 3348,
      "لااا": 3349,
      "فييه": 3350,
      "كسب": 3351,
      "بلك": 3352,
      "وحط": 3353,
      "ديفانت": 3354,
      "ارو": 3355,
      "لوست": 3356,
      "بيتيتي": 3357,
      "خاصك": 3358,
      "ركب": 3359,
      "ميساء": 3360,
      "كها": 3361,
      "بارو": 3362,
      "اث": 3363,
      "ايدو": 3364,
      "كالس": 3365,
      "جوب": 3366,
      "قين": 3367,
      "بروبلي": 3368,
      "يمي": 3369,
      "تج": 3370,
      "هونتي": 3371,
      "براسها": 3372,
      "عيشه": 3373,
      "عمري": 3374,
      "رافا": 3375,
      "نضال": 3376,
      "سفيان": 3377,
      "بلاصتو": 3378,
      "استواللي": 3379,
      "شويا": 3380,
      "ماتتير": 3381,
      "كضحك": 3382,
      "بهدوء": 3383,
      "بالله": 3384,
      "انتو": 3385,
      "لانك": 3386,
      "هدشي": 3387,
      "واننا": 3388,
      "يفيريثينك": 3389,
      "الخدمه": 3390,
      "اليك": 3391,
      "بيرس": 3392,
      "فاوكس": 3393,
      "حات": 3394,
      "فيلس": 3395,
      "ضري": 3396,
      "الكو": 3397,
      "يسمي": 3398,
      "اندا": 3399,
      "بوث": 3400,
      "لتي": 3401,
      "جافايس": 3402,
      "فومي": 3403,
      "عافاك": 3404,
      "مادريد": 3405,
      "ريتوييت": 3406,
      "حوايجها": 3407,
      "تعرف": 3408,
      "فافوري": 3409,
      "عنقو": 3410,
      "مينتي": 3411,
      "الاله": 3412,
      "ميسي": 3413,
      "رجعت": 3414,
      "لاك": 3415,
      "ثروغ": 3416,
      "سلم": 3417,
      "نط": 3418,
      "وييي": 3419,
      "شت": 3420,
      "تيقوي": 3421,
      "ابتس": 3422,
      "باينه": 3423,
      "وووووو": 3424,
      "الدو": 3425,
      "فيغت": 3426,
      "ينها": 3427,
      "شيرشي": 3428,
      "سافوير": 3429,
      "هاجر": 3430,
      "كاكا": 3431,
      "معند": 3432,
      "طبيب": 3433,
      "مرحبا": 3434,
      "جوير": 3435,
      "رويس": 3436,
      "اهميد": 3437,
      "جاوب": 3438,
      "عفاك": 3439,
      "يات": 3440,
      "بيله": 3441,
      "جواد": 3442,
      "وفري": 3443,
      "فينيمينت": 3444,
      "كحل": 3445,
      "سف": 3446,
      "الدم": 3447,
      "دراري": 3448,
      "نوع": 3449,
      "اواي": 3450,
      "يندس": 3451,
      "صرف": 3452,
      "واز": 3453,
      "هال": 3454,
      "خاصني": 3455,
      "جبه": 3456,
      "الصباح": 3457,
      "حغ": 3458,
      "ههههههه": 3459,
      "جلال": 3460,
      "ويفي": 3461,
      "فويسي": 3462,
      "دونالدترومب": 3463,
      "طلعت": 3464,
      "بروف": 3465,
      "شالل": 3466,
      "بتدرر": 3467,
      "سوفير": 3468,
      "بلانس": 3469,
      "ايينت": 3470,
      "قويلس": 3471,
      "يكست": 3472,
      "يالل": 3473,
      "برينك": 3474,
      "يوه": 3475,
      "امس": 3476,
      "جوستيسي": 3477,
      "نسي": 3478,
      "ديففير": 3479,
      "مارري": 3480,
      "ليغت": 3481,
      "نتوما": 3482,
      "وئام": 3483,
      "ابب": 3484,
      "لش": 3485,
      "ريكاردير": 3486,
      "خالتي": 3487,
      "لاكي": 3488,
      "امم": 3489,
      "رررررررر": 3490,
      "ددد": 3491,
      "كسء": 3492,
      "بوه": 3493,
      "قم": 3494,
      "كيري": 3495,
      "ميلو": 3496,
      "وسف": 3497,
      "لياا": 3498,
      "وسير": 3499,
      "ييب": 3500,
      "بث": 3501,
      "هتتبستسوقي": 3502,
      "ضل": 3503,
      "شيش": 3504,
      "بفف": 3505,
      "ويلد": 3506,
      "تصد": 3507,
      "يمو": 3508,
      "متها": 3509,
      "نيتفليكس": 3510,
      "تقدر": 3511,
      "دع": 3512,
      "سعد": 3513,
      "كاميس": 3514,
      "غاد": 3515,
      "عمرو": 3516,
      "لفوق": 3517,
      "ثوغت": 3518,
      "هاااا": 3519,
      "تودو": 3520,
      "بلايسير": 3521,
      "لاء": 3522,
      "فاق": 3523,
      "هابي": 3524,
      "وهبط": 3525,
      "فطور": 3526,
      "هوت": 3527,
      "بارينتس": 3528,
      "فراس": 3529,
      "يييييي": 3530,
      "لنا": 3531,
      "نعرف": 3532,
      "براي": 3533,
      "كيجري": 3534,
      "يرجع": 3535,
      "بوكينيا": 3536,
      "سوك": 3537,
      "ماكان": 3538,
      "ديفف": 3539,
      "طف": 3540,
      "الريادي": 3541,
      "زف": 3542,
      "ئل": 3543,
      "اللهم": 3544,
      "سوبس": 3545,
      "ليفيس": 3546,
      "تران": 3547,
      "بجهد": 3548,
      "سوببو": 3549,
      "ييوكس": 3550,
      "فيديها": 3551,
      "تهاا": 3552,
      "بتك": 3553,
      "سكينه": 3554,
      "طفي": 3555,
      "جنه": 3556,
      "ساما": 3557,
      "وففيسييل": 3558,
      "داسسورد": 3559,
      "مسي": 3560,
      "عندنا": 3561,
      "حبس": 3562,
      "واخ": 3563,
      "اتيفي": 3564,
      "حبيبه": 3565,
      "هناا": 3566,
      "تزوج": 3567,
      "لقاتو": 3568,
      "عيه": 3569,
      "نوفياو": 3570,
      "بيان": 3571,
      "داع": 3572,
      "هزها": 3573,
      "ناز": 3574,
      "ريالدونالدترومب": 3575,
      "يتا": 3576,
      "نشوفو": 3577,
      "لداخل": 3578,
      "حء": 3579,
      "لوين": 3580,
      "اااات": 3581,
      "خان": 3582,
      "جايه": 3583,
      "ويست": 3584,
      "والم": 3585,
      "جيان": 3586,
      "اسسورد": 3587,
      "معرفتش": 3588,
      "فاو": 3589,
      "فرق": 3590,
      "طب": 3591,
      "بوف": 3592,
      "ريميمبير": 3593,
      "مارس": 3594,
      "تتيس": 3595,
      "سايسون": 3596,
      "نيقوي": 3597,
      "بووير": 3598,
      "واو": 3599,
      "غاده": 3600,
      "سودي": 3601,
      "جيري": 3602,
      "روف": 3603,
      "باء": 3604,
      "هيللو": 3605,
      "طاحت": 3606,
      "البي": 3607,
      "كرشها": 3608,
      "لوم": 3609,
      "افوي": 3610,
      "شاك": 3611,
      "بروشا": 3612,
      "ابرس": 3613,
      "سوكي": 3614,
      "ناو": 3615,
      "يدك": 3616,
      "ميليلي": 3617,
      "فييي": 3618,
      "روج": 3619,
      "سوسيال": 3620,
      "ماج": 3621,
      "سيمايني": 3622,
      "كلهم": 3623,
      "خات": 3624,
      "موك": 3625,
      "حمد": 3626,
      "خالي": 3627,
      "مرت": 3628,
      "امازينك": 3629,
      "سنين": 3630,
      "هادو": 3631,
      "قيت": 3632,
      "تيت": 3633,
      "الريكس": 3634,
      "كايشوف": 3635,
      "فرانشيمينت": 3636,
      "زيك": 3637,
      "ديق": 3638,
      "بيبه": 3639,
      "ساست": 3640,
      "سيلا": 3641,
      "يريمينت": 3642,
      "ميسساكي": 3643,
      "جهو": 3644,
      "غراب": 3645,
      "باقا": 3646,
      "ريفير": 3647,
      "انيي": 3648,
      "بلاما": 3649,
      "شعرو": 3650,
      "ديمي": 3651,
      "حاال": 3652,
      "تومور": 3653,
      "هيستويري": 3654,
      "دييي": 3655,
      "ريليكي": 3656,
      "كنو": 3657,
      "ماتين": 3658,
      "دامن": 3659,
      "دريسس": 3660,
      "خنزر": 3661,
      "بيات": 3662,
      "خارجه": 3663,
      "يلف": 3664,
      "حاط": 3665,
      "ترس": 3666,
      "وهز": 3667,
      "يسلا": 3668,
      "غلط": 3669,
      "فهمتي": 3670,
      "كووا": 3671,
      "كملات": 3672,
      "هيستوري": 3673,
      "شمس": 3674,
      "هتتبستسويك": 3675,
      "كسيس": 3676,
      "كلس": 3677,
      "تجمع": 3678,
      "افريسا": 3679,
      "لوكينك": 3680,
      "طاي": 3681,
      "مشكل": 3682,
      "دياب": 3683,
      "فيمميس": 3684,
      "سوز": 3685,
      "هيوريوسي": 3686,
      "داخ": 3687,
      "زاك": 3688,
      "ينفو": 3689,
      "ثوغ": 3690,
      "بونجور": 3691,
      "جيهت": 3692,
      "ويوي": 3693,
      "يتتي": 3694,
      "هبطات": 3695,
      "ريادي": 3696,
      "كاان": 3697,
      "ياربي": 3698,
      "ستف": 3699,
      "لييي": 3700,
      "بوسيتي": 3701,
      "خس": 3702,
      "ثيو": 3703,
      "تفا": 3704,
      "سويي": 3705,
      "زربه": 3706,
      "تحرك": 3707,
      "سوها": 3708,
      "مرات": 3709,
      "قبال": 3710,
      "يخرج": 3711,
      "رول": 3712,
      "كتن": 3713,
      "نسرين": 3714,
      "عادل": 3715,
      "بيسا": 3716,
      "داني": 3717,
      "ااو": 3718,
      "ديفيني": 3719,
      "قري": 3720,
      "ونيي": 3721,
      "وبيني": 3722,
      "وبس": 3723,
      "فيرمي": 3724,
      "ليستي": 3725,
      "وكن": 3726,
      "كاكنير": 3727,
      "ضحكو": 3728,
      "خليها": 3729,
      "غريب": 3730,
      "اط": 3731,
      "يكساست": 3732,
      "الساعه": 3733,
      "هتتبستسويف": 3734,
      "بورن": 3735,
      "اهره": 3736,
      "خلاتو": 3737,
      "يمبو": 3738,
      "سمير": 3739,
      "هاببين": 3740,
      "سوممينسي": 3741,
      "خلص": 3742,
      "بارل": 3743,
      "ساراه": 3744,
      "عهد": 3745,
      "خدات": 3746,
      "الكير": 3747,
      "عرفي": 3748,
      "ناك": 3749,
      "بريتتي": 3750,
      "يده": 3751,
      "البو": 3752,
      "خذ": 3753,
      "بكا": 3754,
      "ديمنه": 3755,
      "اوجورذوي": 3756,
      "كوات": 3757,
      "اوسوني": 3758,
      "بينت": 3759,
      "لماو": 3760,
      "ديين": 3761,
      "بيرثداي": 3762,
      "حاد": 3763,
      "بيع": 3764,
      "كينتي": 3765,
      "ديتب": 3766,
      "لاتي": 3767,
      "سورتوت": 3768,
      "طيب": 3769,
      "لاخر": 3770,
      "تم": 3771,
      "كران": 3772,
      "ساات": 3773,
      "معو": 3774,
      "ضروري": 3775,
      "ليين": 3776,
      "صفاء": 3777,
      "اردس": 3778,
      "دره": 3779,
      "زيه": 3780,
      "ظر": 3781,
      "دوننير": 3782,
      "هبه": 3783,
      "مانس": 3784,
      "ويير": 3785,
      "الطبله": 3786,
      "ضا": 3787,
      "ووك": 3788,
      "فيكس": 3789,
      "بعضي": 3790,
      "كونو": 3791,
      "بورتي": 3792,
      "عخ": 3793,
      "سادي": 3794,
      "وء": 3795,
      "علاء": 3796,
      "جاسك": 3797,
      "علم": 3798,
      "راش": 3799,
      "تب": 3800,
      "طويله": 3801,
      "جرده": 3802,
      "وسلي": 3803,
      "خري": 3804,
      "موجا": 3805,
      "تبكي": 3806,
      "شكل": 3807,
      "بوحدها": 3808,
      "اناس": 3809,
      "عطيك": 3810,
      "سونتا": 3811,
      "صبح": 3812,
      "فيقوي": 3813,
      "الاول": 3814,
      "بعدما": 3815,
      "سونفينيمينت": 3816,
      "سوست": 3817,
      "كتور": 3818,
      "بارييل": 3819,
      "مينس": 3820,
      "كازي": 3821,
      "شانك": 3822,
      "عرس": 3823,
      "ساني": 3824,
      "فرحانه": 3825,
      "بيسودي": 3826,
      "سمحي": 3827,
      "حدو": 3828,
      "ؤاد": 3829,
      "عرو": 3830,
      "اننون": 3831,
      "اسيدي": 3832,
      "وبير": 3833,
      "يستان": 3834,
      "وتري": 3835,
      "سعاد": 3836,
      "يكن": 3837,
      "شري": 3838,
      "المغرب": 3839,
      "ااء": 3840,
      "اااك": 3841,
      "هاك": 3842,
      "يير": 3843,
      "كيح": 3844,
      "خصرها": 3845,
      "فيرسي": 3846,
      "بيلييفي": 3847,
      "ايري": 3848,
      "سولل": 3849,
      "فاقت": 3850,
      "مييت": 3851,
      "جبدات": 3852,
      "ماكينك": 3853,
      "جمعات": 3854,
      "ورجعات": 3855,
      "شوفه": 3856,
      "برين": 3857,
      "كارو": 3858,
      "لبيتها": 3859,
      "كانك": 3860,
      "سلاسس": 3861,
      "تومورروو": 3862,
      "هتتبستسويو": 3863,
      "تد": 3864,
      "انيوني": 3865,
      "يوو": 3866,
      "وجلس": 3867,
      "توكي": 3868,
      "هووا": 3869,
      "سايري": 3870,
      "سونتينوي": 3871,
      "مخرج": 3872,
      "ويثوت": 3873,
      "زام": 3874,
      "تيرري": 3875,
      "يمبورت": 3876,
      "هود": 3877,
      "وبقات": 3878,
      "ياش": 3879,
      "نادا": 3880,
      "ساوف": 3881,
      "خايفه": 3882,
      "لر": 3883,
      "يسساي": 3884,
      "موروس": 3885,
      "بلايينك": 3886,
      "اروند": 3887,
      "بريت": 3888,
      "زيزه": 3889,
      "سوا": 3890,
      "بيلا": 3891,
      "مله": 3892,
      "سوببورت": 3893,
      "يسبا": 3894,
      "بوتيس": 3895,
      "رجس": 3896,
      "لمو": 3897,
      "كيفين": 3898,
      "غء": 3899,
      "غمز": 3900,
      "تبسم": 3901,
      "خك": 3902,
      "اليده": 3903,
      "لواحد": 3904,
      "ستارت": 3905,
      "سط": 3906,
      "باز": 3907,
      "كارد": 3908,
      "شرب": 3909,
      "كيون": 3910,
      "دورات": 3911,
      "هافينك": 3912,
      "تهد": 3913,
      "ريسون": 3914,
      "عاو": 3915,
      "لوطو": 3916,
      "كيرلس": 3917,
      "زادت": 3918,
      "ايللي": 3919,
      "لللل": 3920,
      "نيم": 3921,
      "واب": 3922,
      "ااااه": 3923,
      "ليتي": 3924,
      "وايج": 3925,
      "الليل": 3926,
      "نااا": 3927,
      "امر": 3928,
      "بانك": 3929,
      "شاه": 3930,
      "هضره": 3931,
      "ونز": 3932,
      "انيمي": 3933,
      "الار": 3934,
      "لييك": 3935,
      "ساند": 3936,
      "بالو": 3937,
      "فدار": 3938,
      "هازه": 3939,
      "ابله": 3940,
      "بيلو": 3941,
      "بغضب": 3942,
      "الاح": 3943,
      "غيير": 3944,
      "مايشا": 3945,
      "صوفيا": 3946,
      "بزربه": 3947,
      "مايبي": 3948,
      "هاسس": 3949,
      "ايدي": 3950,
      "ليكم": 3951,
      "غدي": 3952,
      "فديك": 3953,
      "مابغيت": 3954,
      "ازي": 3955,
      "قريب": 3956,
      "اريا": 3957,
      "ينجوي": 3958,
      "وسه": 3959,
      "كدير": 3960,
      "دونن": 3961,
      "كيدا": 3962,
      "فافوريتي": 3963,
      "كاز": 3964,
      "ايمان": 3965,
      "حطها": 3966,
      "فراسها": 3967,
      "فايتي": 3968,
      "دويسنت": 3969,
      "مانقوي": 3970,
      "زكس": 3971,
      "واء": 3972,
      "وقفت": 3973,
      "كوست": 3974,
      "معصب": 3975,
      "شيين": 3976,
      "اسم": 3977,
      "انيثينك": 3978,
      "كتع": 3979,
      "هايني": 3980,
      "براسو": 3981,
      "سج": 3982,
      "لباس": 3983,
      "نبيل": 3984,
      "كرف": 3985,
      "هذ": 3986,
      "فينا": 3987,
      "سريس": 3988,
      "باع": 3989,
      "بييسي": 3990,
      "لمس": 3991,
      "قاا": 3992,
      "دوسي": 3993,
      "ميسسيون": 3994,
      "فرايس": 3995,
      "يستار": 3996,
      "دايلي": 3997,
      "نجمه": 3998,
      "كوتر": 3999,
      "كيضرب": 4000,
      "هتتبستسوسي": 4001,
      "تريينك": 4002,
      "بينا": 4003,
      "غف": 4004,
      "معار": 4005,
      "يسك": 4006,
      "بروج": 4007,
      "لالا": 4008,
      "سورونا": 4009,
      "بحالا": 4010,
      "توحشتك": 4011,
      "هشام": 4012,
      "ريقها": 4013,
      "تولي": 4014,
      "ئيل": 4015,
      "غري": 4016,
      "ورير": 4017,
      "هاهاهاهاها": 4018,
      "ديماند": 4019,
      "ميتس": 4020,
      "نيكي": 4021,
      "نخرج": 4022,
      "قج": 4023,
      "ينيز": 4024,
      "سلت": 4025,
      "هتتبستسوبق": 4026,
      "هتتبستسوكي": 4027,
      "مانكير": 4028,
      "فيولينت": 4029,
      "شوسيس": 4030,
      "بيار": 4031,
      "بيزارري": 4032,
      "هتتبستسوسو": 4033,
      "دب": 4034,
      "تيير": 4035,
      "كملو": 4036,
      "بروفيس": 4037,
      "جلسو": 4038,
      "زاا": 4039,
      "مؤ": 4040,
      "مدد": 4041,
      "زهور": 4042,
      "سوسا": 4043,
      "خفيفه": 4044,
      "نوير": 4045,
      "جاك": 4046,
      "هرب": 4047,
      "زوري": 4048,
      "يط": 4049,
      "بياسي": 4050,
      "بييد": 4051,
      "لييه": 4052,
      "حيث": 4053,
      "فراش": 4054,
      "قمر": 4055,
      "لامه": 4056,
      "البر": 4057,
      "بزوج": 4058,
      "نيفياو": 4059,
      "الغرفه": 4060,
      "يكساستي": 4061,
      "كسا": 4062,
      "بلوت": 4063,
      "اوتانت": 4064,
      "مونت": 4065,
      "لود": 4066,
      "تيها": 4067,
      "بيكك": 4068,
      "نهي": 4069,
      "بليوري": 4070,
      "جوني": 4071,
      "ينهو": 4072,
      "مغاديش": 4073,
      "فنه": 4074,
      "بالك": 4075,
      "بيديه": 4076,
      "كافي": 4077,
      "غنمشي": 4078,
      "سروي": 4079,
      "باريسي": 4080,
      "المخ": 4081,
      "ريسس": 4082,
      "ووندير": 4083,
      "مييلليوري": 4084,
      "الموضوع": 4085,
      "قوار": 4086,
      "معني": 4087,
      "سيسون": 4088,
      "مقدر": 4089,
      "جاج": 4090,
      "لهنا": 4091,
      "كينا": 4092,
      "لكود": 4093,
      "حبيبي": 4094,
      "ليتيراللي": 4095,
      "كج": 4096,
      "جوكي": 4097,
      "اورايت": 4098,
      "كوه": 4099,
      "ثوم": 4100,
      "سويف": 4101,
      "بوز": 4102,
      "زيما": 4103,
      "جنا": 4104,
      "يدخل": 4105,
      "ينوغ": 4106,
      "انور": 4107,
      "تالكينك": 4108,
      "اننا": 4109,
      "ميم": 4110,
      "راو": 4111,
      "امن": 4112,
      "وتير": 4113,
      "صاب": 4114,
      "ماتت": 4115,
      "ونن": 4116,
      "بروتيست": 4117,
      "واري": 4118,
      "جرد": 4119,
      "بينكس": 4120,
      "كتسمع": 4121,
      "جينا": 4122,
      "وهولي": 4123,
      "ساها": 4124,
      "فكره": 4125,
      "زم": 4126,
      "تيتي": 4127,
      "جنبها": 4128,
      "فؤاد": 4129,
      "ونطق": 4130,
      "وسيد": 4131,
      "ثار": 4132,
      "تيبي": 4133,
      "لامار": 4134,
      "قويلقوون": 4135,
      "لييس": 4136,
      "كط": 4137,
      "هتتبستسوقو": 4138,
      "فوطه": 4139,
      "ناسس": 4140,
      "ووق": 4141,
      "خليك": 4142,
      "بنتها": 4143,
      "سايينك": 4144,
      "فاروق": 4145,
      "سبق": 4146,
      "هوب": 4147,
      "دارك": 4148,
      "فوللي": 4149,
      "دروب": 4150,
      "سامب": 4151,
      "ديش": 4152,
      "هتتبستسوبي": 4153,
      "ينسري": 4154,
      "حسيت": 4155,
      "سويتي": 4156,
      "سبياك": 4157,
      "حليمه": 4158,
      "ملاك": 4159,
      "ينيك": 4160,
      "اننيفير": 4161,
      "بببب": 4162,
      "كييي": 4163,
      "كيبان": 4164,
      "لوني": 4165,
      "الاو": 4166,
      "فييد": 4167,
      "رجعو": 4168,
      "خاصه": 4169,
      "زور": 4170,
      "ديير": 4171,
      "سمعت": 4172,
      "بنادم": 4173,
      "كغ": 4174,
      "جوسقو": 4175,
      "بيتير": 4176,
      "نداني": 4177,
      "هامدو": 4178,
      "ووردس": 4179,
      "ايديه": 4180,
      "بالزربه": 4181,
      "فواحد": 4182,
      "بوحدي": 4183,
      "ادام": 4184,
      "ارمي": 4185,
      "باني": 4186,
      "هتتبستسوفو": 4187,
      "بنفس": 4188,
      "سونفي": 4189,
      "لاله": 4190,
      "ووم": 4191,
      "بارد": 4192,
      "سكتي": 4193,
      "مايا": 4194,
      "لاوي": 4195,
      "جوف": 4196,
      "البا": 4197,
      "ريماس": 4198,
      "مينا": 4199,
      "سروال": 4200,
      "عيون": 4201,
      "تفر": 4202,
      "ورونك": 4203,
      "بيناتهم": 4204,
      "موستا": 4205,
      "مارشي": 4206,
      "البارح": 4207,
      "فليتس": 4208,
      "ميكا": 4209,
      "يكساستيمينت": 4210,
      "تنا": 4211,
      "جيوني": 4212,
      "مكا": 4213,
      "فامي": 4214,
      "بهوتوس": 4215,
      "انتا": 4216,
      "فينسي": 4217,
      "تليفون": 4218,
      "طبله": 4219,
      "وذ": 4220,
      "العا": 4221,
      "ننن": 4222,
      "عمرها": 4223,
      "ينتلي": 4224,
      "القلب": 4225,
      "هاير": 4226,
      "ماات": 4227,
      "سارر": 4228,
      "سيلين": 4229,
      "خلينا": 4230,
      "مانو": 4231,
      "مكنش": 4232,
      "هتتبس": 4233,
      "كككككككك": 4234,
      "داب": 4235,
      "ماره": 4236,
      "صار": 4237,
      "مارش": 4238,
      "لوف": 4239,
      "سح": 4240,
      "سليب": 4241,
      "دودي": 4242,
      "لهم": 4243,
      "مرك": 4244,
      "يسلام": 4245,
      "دوكس": 4246,
      "سالو": 4247,
      "ميكي": 4248,
      "ويب": 4249,
      "ورايس": 4250,
      "طالع": 4251,
      "سونفليتس": 4252,
      "ايدها": 4253,
      "يتش": 4254,
      "رجاء": 4255,
      "بيرت": 4256,
      "ميلليون": 4257,
      "هتتبستسوقق": 4258,
      "لتع": 4259,
      "عليهاا": 4260,
      "قدامي": 4261,
      "بليقوي": 4262,
      "كيدس": 4263,
      "دورينك": 4264,
      "سينتي": 4265,
      "سيكني": 4266,
      "سواندو": 4267,
      "سوللي": 4268,
      "برافو": 4269,
      "شتي": 4270,
      "دوبلي": 4271,
      "عيد": 4272,
      "هزا": 4273,
      "عمرك": 4274,
      "مدررررر": 4275,
      "توون": 4276,
      "خسر": 4277,
      "كوز": 4278,
      "برك": 4279,
      "دوه": 4280,
      "اتتينتيون": 4281,
      "ينسيمبلي": 4282,
      "باستغراب": 4283,
      "بوبو": 4284,
      "ابير": 4285,
      "دينسي": 4286,
      "المست": 4287,
      "ينستا": 4288,
      "بيش": 4289,
      "يتبع": 4290,
      "سماح": 4291,
      "سونن": 4292,
      "ينفانتس": 4293,
      "ااام": 4294,
      "شهق": 4295,
      "ورتي": 4296,
      "كارا": 4297,
      "بوند": 4298,
      "لارض": 4299,
      "وعد": 4300,
      "لاور": 4301,
      "رجليه": 4302,
      "مالكي": 4303,
      "برج": 4304,
      "اكريي": 4305,
      "نقدر": 4306,
      "ليفير": 4307,
      "زب": 4308,
      "وعلي": 4309,
      "غيي": 4310,
      "وشاف": 4311,
      "هتتبستسوفي": 4312,
      "كاك": 4313,
      "شنوو": 4314,
      "سيكو": 4315,
      "كاو": 4316,
      "لاري": 4317,
      "ميشي": 4318,
      "سيسوند": 4319,
      "ديرس": 4320,
      "خصوصا": 4321,
      "زواج": 4322,
      "وبقا": 4323,
      "قاو": 4324,
      "تولد": 4325,
      "الاء": 4326,
      "كنزه": 4327,
      "طرف": 4328,
      "كتفكر": 4329,
      "بليين": 4330,
      "سريت": 4331,
      "انين": 4332,
      "منت": 4333,
      "بااش": 4334,
      "ووقف": 4335,
      "توقف": 4336,
      "جونك": 4337,
      "وراها": 4338,
      "اهاه": 4339,
      "الفوق": 4340,
      "ااااااا": 4341,
      "وييكيند": 4342,
      "نرجس": 4343,
      "واتشينك": 4344,
      "بسمه": 4345,
      "ميسيلف": 4346,
      "سالم": 4347,
      "جهاد": 4348,
      "عاج": 4349,
      "عء": 4350,
      "اتتي": 4351,
      "سيرتا": 4352,
      "اليسي": 4353,
      "جايا": 4354,
      "تتتت": 4355,
      "قوت": 4356,
      "يبن": 4357,
      "ماكن": 4358,
      "يللا": 4359,
      "هيء": 4360,
      "فيندري": 4361,
      "مارسي": 4362,
      "ارابي": 4363,
      "زول": 4364,
      "فانت": 4365,
      "الخط": 4366,
      "بيديها": 4367,
      "استيون": 4368,
      "سيرايت": 4369,
      "بيسي": 4370,
      "وومان": 4371,
      "سونتينو": 4372,
      "حبه": 4373,
      "خن": 4374,
      "الين": 4375,
      "وراق": 4376,
      "طس": 4377,
      "ياسي": 4378,
      "كوفيرن": 4379,
      "وعلاش": 4380,
      "يفف": 4381,
      "بوسينيسس": 4382,
      "رااس": 4383,
      "سيز": 4384,
      "مصدو": 4385,
      "سورا": 4386,
      "مجموع": 4387,
      "هل": 4388,
      "يسسيس": 4389,
      "هداك": 4390,
      "خدو": 4391,
      "لوق": 4392,
      "شينا": 4393,
      "حاسه": 4394,
      "عيسي": 4395,
      "ميشاي": 4396,
      "بيتو": 4397,
      "كيما": 4398,
      "هيوريوسيمينت": 4399,
      "ودار": 4400,
      "عمل": 4401,
      "فيدا": 4402,
      "مزه": 4403,
      "عري": 4404,
      "حامله": 4405,
      "تيينس": 4406,
      "ليكوي": 4407,
      "فيروس": 4408,
      "راتيون": 4409,
      "هابط": 4410,
      "باو": 4411,
      "ماكسي": 4412,
      "بوشي": 4413,
      "فالص": 4414,
      "اخويا": 4415,
      "رجم": 4416,
      "فينو": 4417,
      "ثور": 4418,
      "حين": 4419,
      "فريرو": 4420,
      "نهضر": 4421,
      "العائله": 4422,
      "فييللي": 4423,
      "مستحيل": 4424,
      "لمن": 4425,
      "الكرسي": 4426,
      "جاميس": 4427,
      "كبي": 4428,
      "فولو": 4429,
      "خوك": 4430,
      "وريتي": 4431,
      "دكس": 4432,
      "وهاتس": 4433,
      "سونفليتسفر": 4434,
      "يوسسي": 4435,
      "سرون": 4436,
      "لاص": 4437,
      "هتتبستسوكو": 4438,
      "سلان": 4439,
      "برودو": 4440,
      "كايس": 4441,
      "هيالث": 4442,
      "سيرفي": 4443,
      "فعلا": 4444,
      "عك": 4445,
      "خوي": 4446,
      "ديلا": 4447,
      "ادر": 4448,
      "وشافت": 4449,
      "كيهضر": 4450,
      "رائ": 4451,
      "سيبتي": 4452,
      "وسينك": 4453,
      "ديالهم": 4454,
      "كتقلب": 4455,
      "دنيا": 4456,
      "ريمينت": 4457,
      "ءس": 4458,
      "يسم": 4459,
      "دسل": 4460,
      "فكل": 4461,
      "هاهاهاهاه": 4462,
      "سانك": 4463,
      "لبنات": 4464,
      "فونني": 4465,
      "السلام": 4466,
      "هااد": 4467,
      "اسسيز": 4468,
      "وينت": 4469,
      "ديوس": 4470,
      "بوليت": 4471,
      "نكس": 4472,
      "فلاش": 4473,
      "انزا": 4474,
      "راتي": 4475,
      "سومموني": 4476,
      "رزان": 4477,
      "خدها": 4478,
      "ريبو": 4479,
      "وعط": 4480,
      "ليث": 4481,
      "لييو": 4482,
      "ولاكن": 4483,
      "وجام": 4484,
      "معندي": 4485,
      "موراها": 4486,
      "خوف": 4487,
      "بروفي": 4488,
      "ئر": 4489,
      "ووووو": 4490,
      "جيل": 4491,
      "نيمينت": 4492,
      "دروي": 4493,
      "باللي": 4494,
      "ديار": 4495,
      "تابي": 4496,
      "مومو": 4497,
      "ضربات": 4498,
      "قرر": 4499,
      "كوثر": 4500,
      "تاحي": 4501,
      "يتو": 4502,
      "سوراكي": 4503,
      "غيره": 4504,
      "يمين": 4505,
      "ميوفس": 4506,
      "ولها": 4507,
      "بتاسمات": 4508,
      "ووي": 4509,
      "ستيلي": 4510,
      "يتري": 4511,
      "ففيسييل": 4512,
      "خليه": 4513,
      "فاير": 4514,
      "بحالي": 4515,
      "حني": 4516,
      "عيي": 4517,
      "الير": 4518,
      "يكو": 4519,
      "تهز": 4520,
      "شيلل": 4521,
      "تريستي": 4522,
      "كويولي": 4523,
      "الرح": 4524,
      "شرو": 4525,
      "طين": 4526,
      "رئ": 4527,
      "شكر": 4528,
      "اتييز": 4529,
      "منصف": 4530,
      "نديرو": 4531,
      "جورنال": 4532,
      "يقدر": 4533,
      "هتتبستسوكسي": 4534,
      "ويلسومي": 4535,
      "هتتبستسوفف": 4536,
      "سواش": 4537,
      "روبي": 4538,
      "حيدات": 4539,
      "انااا": 4540,
      "ءك": 4541,
      "لكس": 4542,
      "جهينه": 4543,
      "ينفير": 4544,
      "يييس": 4545,
      "تيرس": 4546,
      "حقق": 4547,
      "خوله": 4548,
      "ااار": 4549,
      "بالجهد": 4550,
      "ديرنيير": 4551,
      "ينز": 4552,
      "علييه": 4553,
      "ضات": 4554,
      "ميير": 4555,
      "بقه": 4556,
      "اماما": 4557,
      "تكم": 4558,
      "بوع": 4559,
      "خع": 4560,
      "كتهضر": 4561,
      "مكل": 4562,
      "يونيس": 4563,
      "مانكي": 4564,
      "فعل": 4565,
      "بيينت": 4566,
      "نوفي": 4567,
      "كورو": 4568,
      "بوتس": 4569,
      "كراسياس": 4570,
      "لاها": 4571,
      "عقد": 4572,
      "غب": 4573,
      "ينشاللاه": 4574,
      "نزلو": 4575,
      "جميع": 4576,
      "انكو": 4577,
      "خاليد": 4578,
      "يستيونس": 4579,
      "هولي": 4580,
      "ونديرستاند": 4581,
      "خلعه": 4582,
      "وجهه": 4583,
      "دافي": 4584,
      "رع": 4585,
      "مالها": 4586,
      "نوا": 4587,
      "افه": 4588,
      "بيتال": 4589,
      "لاما": 4590,
      "بسم": 4591,
      "تتو": 4592,
      "وناضت": 4593,
      "فحي": 4594,
      "بيسس": 4595,
      "فرير": 4596,
      "مزا": 4597,
      "جوسي": 4598,
      "فورد": 4599,
      "فره": 4600,
      "عنيها": 4601,
      "ااال": 4602,
      "جلا": 4603,
      "كيقول": 4604,
      "بست": 4605,
      "غوات": 4606,
      "سومبريندس": 4607,
      "ونكي": 4608,
      "ضهر": 4609,
      "لوا": 4610,
      "ويين": 4611,
      "اححح": 4612,
      "الال": 4613,
      "فاسس": 4614,
      "فاسيبوك": 4615,
      "فففف": 4616,
      "دخلي": 4617,
      "ماز": 4618,
      "دامه": 4619,
      "ويار": 4620,
      "ماعرفتش": 4621,
      "عيا": 4622,
      "ساكن": 4623,
      "كتحاول": 4624,
      "مليه": 4625,
      "للو": 4626,
      "فيلل": 4627,
      "هومميس": 4628,
      "انسان": 4629,
      "وفوت": 4630,
      "المس": 4631,
      "افس": 4632,
      "فداك": 4633,
      "قش": 4634,
      "بيرفيست": 4635,
      "روسسي": 4636,
      "فولايس": 4637,
      "خطوه": 4638,
      "هتتبستسوفق": 4639,
      "تلفت": 4640,
      "مييي": 4641,
      "لبارح": 4642,
      "ادوس": 4643,
      "ستايت": 4644,
      "غيه": 4645,
      "اشراق": 4646,
      "ابراهيم": 4647,
      "الضحكه": 4648,
      "واتير": 4649,
      "اولا": 4650,
      "شريست": 4651,
      "فيفا": 4652,
      "ضحي": 4653,
      "تينير": 4654,
      "الحيط": 4655,
      "اميمه": 4656,
      "ريبا": 4657,
      "سوميس": 4658,
      "شم": 4659,
      "ميغت": 4660,
      "مللي": 4661,
      "كريين": 4662,
      "بقيتي": 4663,
      "اسلام": 4664,
      "زززز": 4665,
      "فورمي": 4666,
      "سسريين": 4667,
      "ريند": 4668,
      "بطريقه": 4669,
      "مكانش": 4670,
      "سونتينت": 4671,
      "راهم": 4672,
      "ميكن": 4673,
      "سيمو": 4674,
      "تويين": 4675,
      "بسخ": 4676,
      "هههههههههههههههههههههههههههههههه": 4677,
      "بريسون": 4678,
      "رافائيل": 4679,
      "نيكو": 4680,
      "هتتبستسوسس": 4681,
      "ديسينت": 4682,
      "بروثير": 4683,
      "كويرري": 4684,
      "ماكنيفيقوي": 4685,
      "ديسك": 4686,
      "طء": 4687,
      "ماعرف": 4688,
      "كوزي": 4689,
      "ملك": 4690,
      "يناش": 4691,
      "امه": 4692,
      "فالدار": 4693,
      "كرش": 4694,
      "دريام": 4695,
      "كسج": 4696,
      "كرم": 4697,
      "للير": 4698,
      "ضن": 4699,
      "درب": 4700,
      "قائ": 4701,
      "فيلو": 4702,
      "هوكو": 4703,
      "مالو": 4704,
      "سندس": 4705,
      "بحالك": 4706,
      "ياكما": 4707,
      "ريدا": 4708,
      "كتفو": 4709,
      "فرمت": 4710,
      "زوم": 4711,
      "جلست": 4712,
      "حها": 4713,
      "هك": 4714,
      "وقفو": 4715,
      "هومان": 4716,
      "ليكا": 4717,
      "ايو": 4718,
      "لوكيقوي": 4719,
      "نغ": 4720,
      "ابديل": 4721,
      "ميمكنش": 4722,
      "بيستي": 4723,
      "تكا": 4724,
      "وانتي": 4725,
      "عائل": 4726,
      "وفين": 4727,
      "زبي": 4728,
      "سوبري": 4729,
      "فوجه": 4730,
      "لقه": 4731,
      "كابي": 4732,
      "ايديها": 4733,
      "الصمت": 4734,
      "اببلي": 4735,
      "بيرد": 4736,
      "وبينيون": 4737,
      "ررررر": 4738,
      "هابا": 4739,
      "صحاب": 4740,
      "سيمبا": 4741,
      "راسس": 4742,
      "عزيزه": 4743,
      "سوتير": 4744,
      "قبله": 4745,
      "باات": 4746,
      "لاباس": 4747,
      "براس": 4748,
      "سسا": 4749,
      "الاف": 4750,
      "هيارت": 4751,
      "ابسولومينت": 4752,
      "قويلقويس": 4753,
      "ودخلات": 4754,
      "باسا": 4755,
      "معنق": 4756,
      "لبنت": 4757,
      "قيق": 4758,
      "سومبريندري": 4759,
      "وااش": 4760,
      "حالتها": 4761,
      "بصدمه": 4762,
      "دوت": 4763,
      "بروبابلي": 4764,
      "ضو": 4765,
      "ماسي": 4766,
      "ولدو": 4767,
      "ببب": 4768,
      "ليكيس": 4769,
      "براهيم": 4770,
      "وصلت": 4771,
      "كيدير": 4772,
      "ضربو": 4773,
      "الليله": 4774,
      "اكبر": 4775,
      "اشرف": 4776,
      "فاستس": 4777,
      "سيار": 4778,
      "حول": 4779,
      "عليي": 4780,
      "شوس": 4781,
      "سوفف": 4782,
      "صلاح": 4783,
      "هتتبستسوكك": 4784,
      "حلو": 4785,
      "وشنو": 4786,
      "ريحه": 4787,
      "ءو": 4788,
      "تينت": 4789,
      "بنظ": 4790,
      "الاي": 4791,
      "ختك": 4792,
      "بورقوي": 4793,
      "ثاني": 4794,
      "صخر": 4795,
      "سيكسو": 4796,
      "وووووووو": 4797,
      "يرري": 4798,
      "نيز": 4799,
      "معها": 4800,
      "سوريس": 4801,
      "البال": 4802,
      "عدنان": 4803,
      "انيم": 4804,
      "وقل": 4805,
      "سارري": 4806,
      "سكين": 4807,
      "هوست": 4808,
      "سدات": 4809,
      "يستسي": 4810,
      "نزلت": 4811,
      "حاطه": 4812,
      "سلايريمينت": 4813,
      "تينك": 4814,
      "سنه": 4815,
      "طويل": 4816,
      "بخير": 4817,
      "فوللوويرس": 4818,
      "ولوكي": 4819,
      "فمك": 4820,
      "بغيتك": 4821,
      "ريسيي": 4822,
      "تروف": 4823,
      "عععع": 4824,
      "هتتبستسوبو": 4825,
      "يورسيلف": 4826,
      "بران": 4827,
      "فيات": 4828,
      "ووج": 4829,
      "سيمينت": 4830,
      "كتف": 4831,
      "صحه": 4832,
      "بروبري": 4833,
      "موراه": 4834,
      "طاا": 4835,
      "شدو": 4836,
      "بيردو": 4837,
      "ثيريس": 4838,
      "فاموس": 4839,
      "اموس": 4840,
      "وزاد": 4841,
      "مونتري": 4842,
      "تايري": 4843,
      "حبيبتي": 4844,
      "وورد": 4845,
      "كروب": 4846,
      "مخلي": 4847,
      "ينفت": 4848,
      "الشر": 4849,
      "هتتبستسوكسو": 4850,
      "ونتيل": 4851,
      "تجرس": 4852,
      "روه": 4853,
      "خنز": 4854,
      "ودو": 4855,
      "داف": 4856,
      "مينتيون": 4857,
      "لامي": 4858,
      "عبير": 4859,
      "ناكي": 4860,
      "ريكارد": 4861,
      "مصدومه": 4862,
      "زانيا": 4863,
      "بهاء": 4864,
      "لورس": 4865,
      "غاديه": 4866,
      "ويز": 4867,
      "بالنسبه": 4868,
      "مزير": 4869,
      "براسي": 4870,
      "لوج": 4871,
      "متع": 4872,
      "غم": 4873,
      "خفيف": 4874,
      "سومبريند": 4875,
      "غح": 4876,
      "عرفها": 4877,
      "طموبيل": 4878,
      "طت": 4879,
      "ديتيس": 4880,
      "طرطق": 4881,
      "طخ": 4882,
      "ريسك": 4883,
      "عالي": 4884,
      "مدام": 4885,
      "ديتيون": 4886,
      "داار": 4887,
      "ياو": 4888,
      "كنشوف": 4889,
      "ناها": 4890,
      "لدرجه": 4891,
      "نبا": 4892,
      "ديتير": 4893,
      "بيكي": 4894,
      "يكسيستي": 4895,
      "يااك": 4896,
      "ببل": 4897,
      "تكل": 4898,
      "جديده": 4899,
      "ماعندي": 4900,
      "يسنت": 4901,
      "شامبيونس": 4902,
      "ريمب": 4903,
      "افين": 4904,
      "فوللو": 4905,
      "بوير": 4906,
      "ليكه": 4907,
      "رياض": 4908,
      "فاات": 4909,
      "بانا": 4910,
      "سورفي": 4911,
      "اردي": 4912,
      "باييرن": 4913,
      "ونليني": 4914,
      "ليهوم": 4915,
      "ينستي": 4916,
      "تتين": 4917,
      "كسكسكس": 4918,
      "صحي": 4919,
      "بروكرا": 4920,
      "نطقات": 4921,
      "دجي": 4922,
      "طاهره": 4923,
      "متبع": 4924,
      "تبارك": 4925,
      "غلي": 4926,
      "ليافي": 4927,
      "ماها": 4928,
      "وياك": 4929,
      "شق": 4930,
      "ابريس": 4931,
      "ديففيرينت": 4932,
      "ياه": 4933,
      "مرضه": 4934,
      "كينتيل": 4935,
      "بتدررررر": 4936,
      "نظر": 4937,
      "دوب": 4938,
      "بنتك": 4939,
      "قله": 4940,
      "واتو": 4941,
      "سلوسي": 4942,
      "رحمه": 4943,
      "نييت": 4944,
      "ووركينك": 4945,
      "حوا": 4946,
      "ريوف": 4947,
      "بولل": 4948,
      "تراي": 4949,
      "بوسه": 4950,
      "فسو": 4951,
      "لحي": 4952,
      "يديا": 4953,
      "ونيقوي": 4954,
      "فتك": 4955,
      "كيوس": 4956,
      "هاكاك": 4957,
      "ديموس": 4958,
      "خيل": 4959,
      "ورلد": 4960,
      "سولتوري": 4961,
      "سافايس": 4962,
      "شوكا": 4963,
      "ووش": 4964,
      "قالي": 4965,
      "عينها": 4966,
      "ييين": 4967,
      "سوين": 4968,
      "سونني": 4969,
      "افري": 4970,
      "حسام": 4971,
      "هتتبستسوفس": 4972,
      "فرصه": 4973,
      "ناوي": 4974,
      "ووب": 4975,
      "اليزيد": 4976,
      "موسيقوي": 4977,
      "الحشيش": 4978,
      "وطلع": 4979,
      "الحياه": 4980,
      "شانكير": 4981,
      "نريمان": 4982,
      "ستات": 4983,
      "ساسسي": 4984,
      "هتتبستسويكس": 4985,
      "بلوك": 4986,
      "سيليبر": 4987,
      "عينيك": 4988,
      "عجبك": 4989,
      "فورس": 4990,
      "بلايير": 4991,
      "للس": 4992,
      "تودوس": 4993,
      "غزلان": 4994,
      "ميليس": 4995,
      "ينشا": 4996,
      "انايس": 4997,
      "ولدك": 4998,
      "توكيثير": 4999,
      "بلع": 5000,
      "جوجو": 5001,
      "كده": 5002,
      "سبو": 5003,
      "تيسو": 5004,
      "تورن": 5005,
      "مورا": 5006,
      "سورتير": 5007,
      "ايق": 5008,
      "بخطوات": 5009,
      "كوينيي": 5010,
      "تارد": 5011,
      "غادا": 5012,
      "باليست": 5013,
      "مدات": 5014,
      "فام": 5015,
      "تكوني": 5016,
      "شارا": 5017,
      "هزت": 5018,
      "استوفوت": 5019,
      "يسيا": 5020,
      "سليم": 5021,
      "قلبات": 5022,
      "الاش": 5023,
      "كيوركي": 5024,
      "سوبه": 5025,
      "مزياان": 5026,
      "صوتها": 5027,
      "حاجبو": 5028,
      "حاضي": 5029,
      "ااج": 5030,
      "ذهب": 5031,
      "اكس": 5032,
      "مبغيت": 5033,
      "ليبري": 5034,
      "تبسمات": 5035,
      "سوث": 5036,
      "خافت": 5037,
      "ليارن": 5038,
      "ياب": 5039,
      "رييوكس": 5040,
      "زنقه": 5041,
      "ووف": 5042,
      "جويور": 5043,
      "طلقات": 5044,
      "زاج": 5045,
      "ويك": 5046,
      "ماسرون": 5047,
      "مارك": 5048,
      "لبسي": 5049,
      "سيدينت": 5050,
      "فيديه": 5051,
      "شيء": 5052,
      "خدام": 5053,
      "وريكين": 5054,
      "ضهرها": 5055,
      "كدور": 5056,
      "فبلاصتها": 5057,
      "كيشوفو": 5058,
      "كازا": 5059,
      "مسك": 5060,
      "مونسي": 5061,
      "فاسيلي": 5062,
      "معرف": 5063,
      "اببي": 5064,
      "فيناللي": 5065,
      "كروبي": 5066,
      "ليبان": 5067,
      "مبر": 5068,
      "اسسونت": 5069,
      "اركو": 5070,
      "كاه": 5071,
      "موث": 5072,
      "ابدول": 5073,
      "مايسون": 5074,
      "اون": 5075,
      "عذ": 5076,
      "يج": 5077,
      "لانسي": 5078,
      "السيد": 5079,
      "تييني": 5080,
      "لكل": 5081,
      "تحط": 5082,
      "فراسك": 5083,
      "فوك": 5084,
      "وبداتي": 5085,
      "يسسايي": 5086,
      "سالوت": 5087,
      "سلات": 5088,
      "بينما": 5089,
      "الذ": 5090,
      "روكي": 5091,
      "زء": 5092,
      "ولدها": 5093,
      "دوتي": 5094,
      "سينكلي": 5095,
      "بيخير": 5096,
      "مغت": 5097,
      "وتاني": 5098,
      "العالم": 5099,
      "عشان": 5100,
      "ماستير": 5101,
      "هتتبستسوير": 5102,
      "بروبوس": 5103,
      "مخلو": 5104,
      "تياش": 5105,
      "كته": 5106,
      "ميلان": 5107,
      "ربع": 5108,
      "يستيون": 5109,
      "ستيل": 5110,
      "اتني": 5111,
      "تايمي": 5112,
      "يران": 5113,
      "فالباب": 5114,
      "ياكو": 5115,
      "نفسي": 5116,
      "تاه": 5117,
      "سبيسيال": 5118,
      "اشمن": 5119,
      "كيخ": 5120,
      "قواللاه": 5121,
      "حساب": 5122,
      "كث": 5123,
      "عمار": 5124,
      "خلع": 5125,
      "راديوجام": 5126,
      "تومي": 5127,
      "بليسس": 5128,
      "ايوب": 5129,
      "لارا": 5130,
      "بعدات": 5131,
      "صاك": 5132,
      "قويلقوي": 5133,
      "سالليد": 5134,
      "داو": 5135,
      "سييورس": 5136,
      "نيني": 5137,
      "مغر": 5138,
      "شهد": 5139,
      "هتتبستسوبك": 5140,
      "دوما": 5141,
      "حطو": 5142,
      "ارشي": 5143,
      "الوحيد": 5144,
      "ضبط": 5145,
      "كيتي": 5146,
      "كروو": 5147,
      "مء": 5148,
      "اااااااااااااااا": 5149,
      "شامبيون": 5150,
      "شفي": 5151,
      "كيفما": 5152,
      "صبا": 5153,
      "راديوجامبوكينيا": 5154,
      "جوان": 5155,
      "سياره": 5156,
      "نومبري": 5157,
      "ستيفي": 5158,
      "وليتي": 5159,
      "تيين": 5160,
      "بيدين": 5161,
      "يريي": 5162,
      "كتخ": 5163,
      "بريسينت": 5164,
      "تقو": 5165,
      "حز": 5166,
      "ساكته": 5167,
      "بالا": 5168,
      "ودابا": 5169,
      "بوتت": 5170,
      "فيرسيون": 5171,
      "بيتها": 5172,
      "ماب": 5173,
      "هتتبستسوبس": 5174,
      "مكم": 5175,
      "متف": 5176,
      "خصص": 5177,
      "كينسي": 5178,
      "العرس": 5179,
      "كويسس": 5180,
      "دايرين": 5181,
      "هاداك": 5182,
      "وقرب": 5183,
      "مييلليورس": 5184,
      "مانكا": 5185,
      "يسراي": 5186,
      "سلوي": 5187,
      "مسكين": 5188,
      "عاطي": 5189,
      "حوايجو": 5190,
      "ينترو": 5191,
      "كتغوت": 5192,
      "اهل": 5193,
      "اهيء": 5194,
      "راجع": 5195,
      "ترافايل": 5196,
      "فيللا": 5197,
      "نخلي": 5198,
      "يناس": 5199,
      "الياس": 5200,
      "مينتال": 5201,
      "اوف": 5202,
      "سيتواتيون": 5203,
      "دياث": 5204,
      "نعي": 5205,
      "هزو": 5206,
      "القا": 5207,
      "سيمي": 5208,
      "بومب": 5209,
      "كنبغيك": 5210,
      "اكيس": 5211,
      "يغ": 5212,
      "الور": 5213,
      "ومس": 5214,
      "ااااك": 5215,
      "سابا": 5216,
      "فرونت": 5217,
      "تروسس": 5218,
      "كيلا": 5219,
      "براء": 5220,
      "واست": 5221,
      "بوقوي": 5222,
      "درين": 5223,
      "كيرمان": 5224,
      "فيسيت": 5225,
      "الدراري": 5226,
      "فيرا": 5227,
      "ايرتان": 5228,
      "انث": 5229,
      "جاني": 5230,
      "ضحكت": 5231,
      "ضارت": 5232,
      "معص": 5233,
      "فله": 5234,
      "ديتي": 5235,
      "رز": 5236,
      "صيف": 5237,
      "عان": 5238,
      "شفتك": 5239,
      "يلسي": 5240,
      "نومبير": 5241,
      "ناع": 5242,
      "راد": 5243,
      "همش": 5244,
      "سبب": 5245,
      "خافيش": 5246,
      "يرين": 5247,
      "الرجال": 5248,
      "واك": 5249,
      "دومماكي": 5250,
      "ماث": 5251,
      "زفر": 5252,
      "كنحس": 5253,
      "تاف": 5254,
      "اصاحبي": 5255,
      "بكري": 5256,
      "ستود": 5257,
      "مالادي": 5258,
      "خشا": 5259,
      "شينك": 5260,
      "فولي": 5261,
      "همم": 5262,
      "ااااش": 5263,
      "يدين": 5264,
      "ثينكينك": 5265,
      "طاكسي": 5266,
      "مينك": 5267,
      "لاوغ": 5268,
      "تهضر": 5269,
      "قويه": 5270,
      "ديكس": 5271,
      "كتقول": 5272,
      "معن": 5273,
      "عده": 5274,
      "قويستيونس": 5275,
      "ينستاكرام": 5276,
      "علييك": 5277,
      "اللحظه": 5278,
      "رولي": 5279,
      "فريداي": 5280,
      "مروان": 5281,
      "كيتو": 5282,
      "قام": 5283,
      "مشيو": 5284,
      "فادي": 5285,
      "الواليده": 5286,
      "ضيع": 5287,
      "كااا": 5288,
      "رغم": 5289,
      "صلي": 5290,
      "سناء": 5291,
      "جالسين": 5292,
      "نم": 5293,
      "نوك": 5294,
      "جفيوكس": 5295,
      "سسري": 5296,
      "قصه": 5297,
      "فاوتي": 5298,
      "يكسبيري": 5299,
      "عنقاتو": 5300,
      "الظ": 5301,
      "ينتيس": 5302,
      "ماريام": 5303,
      "امو": 5304,
      "ودارت": 5305,
      "فورماتيون": 5306,
      "مفهم": 5307,
      "ايب": 5308,
      "خء": 5309,
      "بغيي": 5310,
      "تتت": 5311,
      "وجهي": 5312,
      "اندري": 5313,
      "بالاي": 5314,
      "فوتوري": 5315,
      "بشوي": 5316,
      "قان": 5317,
      "تيمب": 5318,
      "بوزز": 5319,
      "بيتويين": 5320,
      "داخله": 5321,
      "سيلون": 5322,
      "لاسس": 5323,
      "ارك": 5324,
      "نيور": 5325,
      "هالي": 5326,
      "رايان": 5327,
      "ديب": 5328,
      "نفسها": 5329,
      "عمران": 5330,
      "واعد": 5331,
      "ذلك": 5332,
      "قوين": 5333,
      "تانا": 5334,
      "طيه": 5335,
      "علياا": 5336,
      "صلو": 5337,
      "داباا": 5338,
      "اكير": 5339,
      "مغي": 5340,
      "روتي": 5341,
      "سكتات": 5342,
      "بنل": 5343,
      "شوا": 5344,
      "لياست": 5345,
      "ماماك": 5346,
      "موج": 5347,
      "لاهي": 5348,
      "ومب": 5349,
      "بخوف": 5350,
      "كاات": 5351,
      "كتبان": 5352,
      "سارد": 5353,
      "ريليا": 5354,
      "يمبورتانت": 5355,
      "يانيس": 5356,
      "مجد": 5357,
      "سوممير": 5358,
      "سيرفيسي": 5359,
      "ينتيد": 5360,
      "تاهي": 5361,
      "سرويري": 5362,
      "خح": 5363,
      "ريكولي": 5364,
      "عطاها": 5365,
      "ريسورد": 5366,
      "تالاسين": 5367,
      "هتتبستسوسك": 5368,
      "بينو": 5369,
      "يخليك": 5370,
      "يسر": 5371,
      "ستون": 5372,
      "منقدرش": 5373,
      "جرات": 5374,
      "ماريي": 5375,
      "عز": 5376,
      "شرح": 5377,
      "باغه": 5378,
      "جسم": 5379,
      "وحد": 5380,
      "يستوي": 5381,
      "سليار": 5382,
      "نوال": 5383,
      "يمكنش": 5384,
      "رااه": 5385,
      "يكساستلي": 5386,
      "طري": 5387,
      "قطعات": 5388,
      "يسسينت": 5389,
      "لز": 5390,
      "كوبي": 5391,
      "مدينه": 5392,
      "جوع": 5393,
      "تيري": 5394,
      "وجا": 5395,
      "اقبال": 5396,
      "يسيي": 5397,
      "فتها": 5398,
      "جرو": 5399,
      "شركه": 5400,
      "افوس": 5401,
      "نيمي": 5402,
      "شيلد": 5403,
      "فعينيه": 5404,
      "لاكن": 5405,
      "حواجبو": 5406,
      "ديسين": 5407,
      "قيل": 5408,
      "اننيفيرسايري": 5409,
      "نييدس": 5410,
      "كتمشي": 5411,
      "البحر": 5412,
      "بدر": 5413,
      "بلاس": 5414,
      "كوفيرنمينت": 5415,
      "تنوض": 5416,
      "ساجد": 5417,
      "دابه": 5418,
      "كتلعب": 5419,
      "دء": 5420,
      "تاكينك": 5421,
      "ظم": 5422,
      "معاا": 5423,
      "صوتو": 5424,
      "ششش": 5425,
      "الكريي": 5426,
      "بييني": 5427,
      "وجات": 5428,
      "فوز": 5429,
      "سوبو": 5430,
      "داتها": 5431,
      "الولد": 5432,
      "ميليليفم": 5433,
      "طيل": 5434,
      "براا": 5435,
      "خدامه": 5436,
      "عييت": 5437,
      "بسباب": 5438,
      "ثييري": 5439,
      "رييس": 5440,
      "ابدو": 5441,
      "كانتش": 5442,
      "لكي": 5443,
      "تيرمين": 5444,
      "ققغ": 5445,
      "قادر": 5446,
      "ميع": 5447,
      "وجهك": 5448,
      "داش": 5449,
      "سرازي": 5450,
      "فينسينت": 5451,
      "يستويري": 5452,
      "طك": 5453,
      "شويكس": 5454,
      "سز": 5455,
      "سيير": 5456,
      "ينيا": 5457,
      "احد": 5458,
      "اموري": 5459,
      "سوسيس": 5460,
      "المكان": 5461,
      "اببريسي": 5462,
      "مجموعين": 5463,
      "مصطفي": 5464,
      "باليستيني": 5465,
      "سونداي": 5466,
      "صراحه": 5467,
      "ميرسيي": 5468,
      "كادو": 5469,
      "وللي": 5470,
      "الكيري": 5471,
      "القصر": 5472,
      "كوين": 5473,
      "فمي": 5474,
      "خدامين": 5475,
      "حمق": 5476,
      "قيي": 5477,
      "ينفلو": 5478,
      "دانسي": 5479,
      "طرا": 5480,
      "ماسسا": 5481,
      "اينت": 5482,
      "ماااا": 5483,
      "زكري": 5484,
      "ميدد": 5485,
      "ويدي": 5486,
      "شك": 5487,
      "دوشي": 5488,
      "مسحات": 5489,
      "ريسور": 5490,
      "جما": 5491,
      "قض": 5492,
      "فينالي": 5493,
      "وعينيها": 5494,
      "توير": 5495,
      "بقاا": 5496,
      "الموت": 5497,
      "انيمال": 5498,
      "سولا": 5499,
      "تمام": 5500,
      "حرام": 5501,
      "ديور": 5502,
      "ميجور": 5503,
      "جمعو": 5504,
      "وغير": 5505,
      "وتيليس": 5506,
      "مونسييور": 5507,
      "سهام": 5508,
      "يديك": 5509,
      "ادن": 5510,
      "بارليس": 5511,
      "غك": 5512,
      "غام": 5513,
      "مونكو": 5514,
      "سبري": 5515,
      "لامح": 5516,
      "حقي": 5517,
      "نوب": 5518,
      "نديو": 5519,
      "وونت": 5520,
      "بالها": 5521,
      "جوكو": 5522,
      "يلو": 5523,
      "مابغيتش": 5524,
      "وهزات": 5525,
      "كتس": 5526,
      "جسرويس": 5527,
      "بشر": 5528,
      "فوني": 5529,
      "بوسيتيون": 5530,
      "ماسك": 5531,
      "خب": 5532,
      "قوالي": 5533,
      "حلم": 5534,
      "مخنزر": 5535,
      "فاز": 5536,
      "هيو": 5537,
      "بينها": 5538,
      "لقاه": 5539,
      "يسرا": 5540,
      "فرايي": 5541,
      "ماكاين": 5542,
      "فوركيت": 5543,
      "بلاش": 5544,
      "حمزه": 5545,
      "براند": 5546,
      "تاش": 5547,
      "خدمو": 5548,
      "مليكه": 5549,
      "منصور": 5550,
      "بيسك": 5551,
      "موفيي": 5552,
      "بتيت": 5553,
      "للبيت": 5554,
      "قسم": 5555,
      "سادا": 5556,
      "بيهداي": 5557,
      "نهد": 5558,
      "دروج": 5559,
      "جيفف": 5560,
      "الملك": 5561,
      "سونكراتول": 5562,
      "فني": 5563,
      "مسكينه": 5564,
      "ضربها": 5565,
      "نيمب": 5566,
      "ترايت": 5567,
      "ماروسا": 5568,
      "فيمينت": 5569,
      "مباش": 5570,
      "تييي": 5571,
      "مارر": 5572,
      "باسيس": 5573,
      "يناا": 5574,
      "ونكو": 5575,
      "بوينتس": 5576,
      "بينسير": 5577,
      "بزاااا": 5578,
      "يتك": 5579,
      "دلا": 5580,
      "مخل": 5581,
      "ورانت": 5582,
      "باركه": 5583,
      "عوين": 5584,
      "قصر": 5585,
      "كحله": 5586,
      "ريليكيون": 5587,
      "وجد": 5588,
      "الامر": 5589,
      "ريلاتيون": 5590,
      "النعاس": 5591,
      "فسب": 5592,
      "ينفويي": 5593,
      "ءهءه": 5594,
      "غمضات": 5595,
      "صاف": 5596,
      "كامير": 5597,
      "يكسيست": 5598,
      "ضها": 5599,
      "الناموسيه": 5600,
      "ستانت": 5601,
      "فريد": 5602,
      "خاصها": 5603,
      "كيست": 5604,
      "سييي": 5605,
      "نتر": 5606,
      "افف": 5607,
      "رجعي": 5608,
      "حسب": 5609,
      "يخلي": 5610,
      "ذر": 5611,
      "لاير": 5612,
      "جوك": 5613,
      "مانويل": 5614,
      "بوسو": 5615,
      "فرم": 5616,
      "كيق": 5617,
      "اببيل": 5618,
      "موسولمان": 5619,
      "بالم": 5620,
      "مونث": 5621,
      "فوللووينك": 5622,
      "بجديه": 5623,
      "ثريي": 5624,
      "فاص": 5625,
      "اييي": 5626,
      "باردون": 5627,
      "وكلم": 5628,
      "ينستانت": 5629,
      "علات": 5630,
      "كييس": 5631,
      "بارتير": 5632,
      "عينيهاا": 5633,
      "رينسي": 5634,
      "بعينيها": 5635,
      "وندي": 5636,
      "ينيش": 5637,
      "حكم": 5638,
      "هتتبستسويه": 5639,
      "دافوير": 5640,
      "يكسسيلل": 5641,
      "مبيرس": 5642,
      "نورمالي": 5643,
      "تينا": 5644,
      "وكات": 5645,
      "ماوفايس": 5646,
      "دينتي": 5647,
      "افرا": 5648,
      "النفس": 5649,
      "الفو": 5650,
      "رفع": 5651,
      "بوفوير": 5652,
      "خيي": 5653,
      "هند": 5654,
      "اسسو": 5655,
      "نعاود": 5656,
      "بعينيه": 5657,
      "حنات": 5658,
      "سكر": 5659,
      "بوحدو": 5660,
      "ريسوم": 5661,
      "سيوليمينت": 5662,
      "نسيت": 5663,
      "ماكو": 5664,
      "نست": 5665,
      "بيكس": 5666,
      "سترييت": 5667,
      "سيكسي": 5668,
      "ساكيس": 5669,
      "ليير": 5670,
      "ينتيرنيت": 5671,
      "الراس": 5672,
      "يتيس": 5673,
      "مانسي": 5674,
      "بروشايني": 5675,
      "احلام": 5676,
      "ديالنا": 5677,
      "عح": 5678,
      "بلوقوي": 5679,
      "مايت": 5680,
      "سافا": 5681,
      "بارتيي": 5682,
      "بوبا": 5683,
      "زوكا": 5684,
      "صاافي": 5685,
      "ديماندير": 5686,
      "اتيور": 5687,
      "بريمير": 5688,
      "مانن": 5689,
      "تيب": 5690,
      "امجاد": 5691,
      "مقابل": 5692,
      "كااع": 5693,
      "ین": 5694,
      "لوقت": 5695,
      "مدي": 5696,
      "مرتا": 5697,
      "فيف": 5698,
      "خره": 5699,
      "ايمير": 5700,
      "بنبره": 5701,
      "كيمي": 5702,
      "طريقه": 5703,
      "بابلو": 5704,
      "حرق": 5705,
      "يسيون": 5706,
      "يللو": 5707,
      "اهه": 5708,
      "دجا": 5709,
      "اويس": 5710,
      "جء": 5711,
      "ميار": 5712,
      "كسم": 5713,
      "برياكينك": 5714,
      "ينسلو": 5715,
      "شفايفو": 5716,
      "بوها": 5717,
      "ضربه": 5718,
      "خربق": 5719,
      "يدوس": 5720,
      "رده": 5721,
      "شيير": 5722,
      "شفتها": 5723,
      "لاااا": 5724,
      "ييني": 5725,
      "قلي": 5726,
      "يبه": 5727,
      "اخالتي": 5728,
      "مافهم": 5729,
      "كاردي": 5730,
      "دقه": 5731,
      "زغ": 5732,
      "يعرف": 5733,
      "خلاتها": 5734,
      "ريبيو": 5735,
      "ابد": 5736,
      "تالي": 5737,
      "يرضي": 5738,
      "ولين": 5739,
      "ببيد": 5740,
      "جلسي": 5741,
      "الفلوس": 5742,
      "هاسسان": 5743,
      "بيوف": 5744,
      "درات": 5745,
      "كيحاول": 5746,
      "تقولي": 5747,
      "ونيتيد": 5748,
      "مريض": 5749,
      "مشيتي": 5750,
      "جولان": 5751,
      "عطيها": 5752,
      "وارد": 5753,
      "ابوس": 5754,
      "بتر": 5755,
      "وجدان": 5756,
      "سامير": 5757,
      "جويورس": 5758,
      "وهاد": 5759,
      "الايام": 5760,
      "بلوسييورس": 5761,
      "جاوبها": 5762,
      "كتغ": 5763,
      "جوليي": 5764,
      "يندينك": 5765,
      "وااحد": 5766,
      "بايل": 5767,
      "ميديس": 5768,
      "بغاو": 5769,
      "لونكتيمبس": 5770,
      "تيكس": 5771,
      "بته": 5772,
      "قلبك": 5773,
      "اتوش": 5774,
      "وينك": 5775,
      "امجد": 5776,
      "اياد": 5777,
      "اربي": 5778,
      "وميس": 5779,
      "بليورير": 5780,
      "مولا": 5781,
      "حواجبها": 5782,
      "سليس": 5783,
      "وفيس": 5784,
      "سومبل": 5785,
      "كيلعب": 5786,
      "بلوسك": 5787,
      "ندخل": 5788,
      "ليادير": 5789,
      "توتاليمينت": 5790,
      "فييلينك": 5791,
      "وتبع": 5792,
      "كيقلب": 5793,
      "خاصو": 5794,
      "حيي": 5795,
      "ومات": 5796,
      "عرفات": 5797,
      "نيتك": 5798,
      "الاست": 5799,
      "بريي": 5800,
      "شوقو": 5801,
      "ليكين": 5802,
      "سولور": 5803,
      "مقل": 5804,
      "كادير": 5805,
      "هاهاهاهاهاهاهاها": 5806,
      "تدخل": 5807,
      "لحال": 5808,
      "ينكو": 5809,
      "دوزو": 5810,
      "يمما": 5811,
      "ريكو": 5812,
      "جبب": 5813,
      "نينت": 5814,
      "الراجل": 5815,
      "فويكس": 5816,
      "السرير": 5817,
      "بغيه": 5818,
      "موهاممي": 5819,
      "توصل": 5820,
      "عمرني": 5821,
      "وشد": 5822,
      "بديت": 5823,
      "دادا": 5824,
      "يته": 5825,
      "ببينك": 5826,
      "كوتو": 5827,
      "كيسي": 5828,
      "العاده": 5829,
      "فراسو": 5830,
      "لبست": 5831,
      "دح": 5832,
      "الطريقه": 5833,
      "تكس": 5834,
      "تسا": 5835,
      "شانت": 5836,
      "لمع": 5837,
      "باان": 5838,
      "كيفينك": 5839,
      "زرق": 5840,
      "عايشه": 5841,
      "بيتتي": 5842,
      "ءكس": 5843,
      "قوينت": 5844,
      "علااش": 5845,
      "سحر": 5846,
      "بوفف": 5847,
      "اسيس": 5848,
      "جادي": 5849,
      "ريات": 5850,
      "ءا": 5851,
      "سرير": 5852,
      "نخليك": 5853,
      "يلياس": 5854,
      "سلييب": 5855,
      "بيسو": 5856,
      "ميلليونس": 5857,
      "خايب": 5858,
      "ميث": 5859,
      "ميسرو": 5860,
      "شدي": 5861,
      "راجلك": 5862,
      "بسغ": 5863,
      "تقريبا": 5864,
      "ساشي": 5865,
      "كتفها": 5866,
      "نابيل": 5867,
      "اياا": 5868,
      "ادور": 5869,
      "قصد": 5870,
      "هيارد": 5871,
      "لمر": 5872,
      "اييه": 5873,
      "ريالي": 5874,
      "الوني": 5875,
      "موبي": 5876,
      "هاسي": 5877,
      "ماريو": 5878,
      "تبد": 5879,
      "كتت": 5880,
      "انات": 5881,
      "يسسانسي": 5882,
      "الحوايج": 5883,
      "سترونك": 5884,
      "فيسيون": 5885,
      "باير": 5886,
      "هناء": 5887,
      "سومبات": 5888,
      "راببورت": 5889,
      "تمت": 5890,
      "صال": 5891,
      "كامينك": 5892,
      "السياره": 5893,
      "طغ": 5894,
      "جوزيف": 5895,
      "تشو": 5896,
      "مريضه": 5897,
      "تيكست": 5898,
      "الكبير": 5899,
      "ريمين": 5900,
      "زيدو": 5901,
      "نجيب": 5902,
      "شيفيوكس": 5903,
      "خور": 5904,
      "نوصير": 5905,
      "بلاييرس": 5906,
      "سومميس": 5907,
      "نجم": 5908,
      "ركا": 5909,
      "تزيد": 5910,
      "ماعيل": 5911,
      "بويل": 5912,
      "جابر": 5913,
      "ستيرس": 5914,
      "مابقيت": 5915,
      "سورتي": 5916,
      "مونتر": 5917,
      "ليوني": 5918,
      "بعضياتهم": 5919,
      "شبع": 5920,
      "زوجه": 5921,
      "سومميت": 5922,
      "جيني": 5923,
      "هتتبستسويد": 5924,
      "فانتا": 5925,
      "وجو": 5926,
      "نادي": 5927,
      "بتدد": 5928,
      "هابب": 5929,
      "توشي": 5930,
      "ينتيندو": 5931,
      "تيند": 5932,
      "وردير": 5933,
      "فيسيس": 5934,
      "ماتيس": 5935,
      "ازار": 5936,
      "سميره": 5937,
      "جانا": 5938,
      "دامي": 5939,
      "نشوفك": 5940,
      "وانتيد": 5941,
      "مابق": 5942,
      "ماتو": 5943,
      "سالات": 5944,
      "جتم": 5945,
      "ماان": 5946,
      "ريسكي": 5947,
      "وهوما": 5948,
      "شييخ": 5949,
      "بوط": 5950,
      "فينيز": 5951,
      "ارسين": 5952,
      "كاكن": 5953,
      "مسس": 5954,
      "قووتي": 5955,
      "بما": 5956,
      "تاهو": 5957,
      "رينتري": 5958,
      "اتم": 5959,
      "دينه": 5960,
      "ززي": 5961,
      "ميلا": 5962,
      "فاج": 5963,
      "الحمام": 5964,
      "بسو": 5965,
      "وفس": 5966,
      "ذكر": 5967,
      "بسلامه": 5968,
      "دورو": 5969,
      "ساهي": 5970,
      "يتها": 5971,
      "كولد": 5972,
      "رولل": 5973,
      "يوي": 5974,
      "كيكي": 5975,
      "الدرجه": 5976,
      "اسكيد": 5977,
      "كاش": 5978,
      "خبر": 5979,
      "جغ": 5980,
      "انسير": 5981,
      "بلاكوي": 5982,
      "موالي": 5983,
      "سوربريسي": 5984,
      "بسس": 5985,
      "بيتا": 5986,
      "جابت": 5987,
      "لی": 5988,
      "كانه": 5989,
      "توتال": 5990,
      "حنين": 5991,
      "فورتنيتي": 5992,
      "حجبانو": 5993,
      "تط": 5994,
      "الطبيبه": 5995,
      "تبدل": 5996,
      "فقه": 5997,
      "امك": 5998,
      "كيفكر": 5999,
      "خز": 6000,
      "بويلد": 6001,
      "هتتبستسويق": 6002,
      "كيسس": 6003,
      "تكات": 6004,
      "ماجي": 6005,
      "لهيستويري": 6006,
      "عطيه": 6007,
      "بروبليم": 6008,
      "سلمات": 6009,
      "تماك": 6010,
      "تقلب": 6011,
      "تبقي": 6012,
      "ايثار": 6013,
      "كاسي": 6014,
      "باستو": 6015,
      "ابته": 6016,
      "وسسيبلي": 6017,
      "مينيستير": 6018,
      "اخي": 6019,
      "ختها": 6020,
      "فتو": 6021,
      "ريوس": 6022,
      "بسبب": 6023,
      "سومبيين": 6024,
      "فيفري": 6025,
      "شاللينكي": 6026,
      "يص": 6027,
      "هتتبستسويل": 6028,
      "روش": 6029,
      "تروست": 6030,
      "فيهوم": 6031,
      "زيم": 6032,
      "اتاي": 6033,
      "هتتبستسووي": 6034,
      "ليفيل": 6035,
      "جبت": 6036,
      "بارس": 6037,
      "زيرو": 6038,
      "سونكراتولاتيونس": 6039,
      "حدايا": 6040,
      "واقفين": 6041,
      "ريكارديز": 6042,
      "بليد": 6043,
      "لهي": 6044,
      "عاش": 6045,
      "شادي": 6046,
      "هاوت": 6047,
      "اببر": 6048,
      "فوه": 6049,
      "فليممي": 6050,
      "جوهره": 6051,
      "رياسون": 6052,
      "اقو": 6053,
      "مباشره": 6054,
      "ونيت": 6055,
      "دورس": 6056,
      "القهوه": 6057,
      "جيم": 6058,
      "بريفي": 6059,
      "اقوي": 6060,
      "وعينيه": 6061,
      "ناني": 6062,
      "سوننو": 6063,
      "الاخر": 6064,
      "وهم": 6065,
      "هتتبستسويت": 6066,
      "ماماها": 6067,
      "خارجين": 6068,
      "ماروساين": 6069,
      "موتس": 6070,
      "نازل": 6071,
      "موشو": 6072,
      "يوروبي": 6073,
      "بنص": 6074,
      "بونسي": 6075,
      "نبقا": 6076,
      "روز": 6077,
      "بريكس": 6078,
      "لعا": 6079,
      "ليبير": 6080,
      "بياس": 6081,
      "حفي": 6082,
      "زيين": 6083,
      "ابس": 6084,
      "كوتي": 6085,
      "تونا": 6086,
      "ريني": 6087,
      "تلفون": 6088,
      "ضت": 6089,
      "المن": 6090,
      "فالس": 6091,
      "العين": 6092,
      "فيدها": 6093,
      "قصي": 6094,
      "واح": 6095,
      "ريكس": 6096,
      "فالح": 6097,
      "بيكا": 6098,
      "لاتيست": 6099,
      "سونترول": 6100,
      "وهما": 6101,
      "خخخ": 6102,
      "ايك": 6103,
      "ولاو": 6104,
      "سونكراتس": 6105,
      "كيلو": 6106,
      "هالف": 6107,
      "ينفي": 6108,
      "رميساء": 6109,
      "سنانو": 6110,
      "ماسقوي": 6111,
      "شيلو": 6112,
      "ناسي": 6113,
      "موسيقي": 6114,
      "هيوريوكس": 6115,
      "وام": 6116,
      "ادير": 6117,
      "نقت": 6118,
      "طالعه": 6119,
      "مبروك": 6120,
      "محتا": 6121,
      "انش": 6122,
      "نانت": 6123,
      "هاسير": 6124,
      "سووو": 6125,
      "سيدرا": 6126,
      "بوليتيس": 6127,
      "مرتو": 6128,
      "ءف": 6129,
      "سويلليس": 6130,
      "بايسي": 6131,
      "كيبوس": 6132,
      "ينسيا": 6133,
      "لاات": 6134,
      "ساسو": 6135,
      "جيك": 6136,
      "سروش": 6137,
      "بروجيست": 6138,
      "وبليي": 6139,
      "ياي": 6140,
      "جاها": 6141,
      "يزيد": 6142,
      "معااه": 6143,
      "تصر": 6144,
      "ريستير": 6145,
      "نكا": 6146,
      "ابدي": 6147,
      "ميشايل": 6148,
      "عدي": 6149,
      "كساف": 6150,
      "بياش": 6151,
      "الخدامه": 6152,
      "ييو": 6153,
      "لينت": 6154,
      "يسيد": 6155,
      "كتكتكت": 6156,
      "قهوه": 6157,
      "سقوي": 6158,
      "يمبوسسيبلي": 6159,
      "بغيش": 6160,
      "ماكين": 6161,
      "ماهريز": 6162,
      "سونتاست": 6163,
      "عاف": 6164,
      "ينفانت": 6165,
      "مغيث": 6166,
      "ويكي": 6167,
      "خاطرها": 6168,
      "رياش": 6169,
      "بغيها": 6170,
      "زمر": 6171,
      "هولد": 6172,
      "ططط": 6173,
      "يسيدي": 6174,
      "كلامو": 6175,
      "قاب": 6176,
      "يبي": 6177,
      "ونزل": 6178,
      "مكين": 6179,
      "جمين": 6180,
      "عامر": 6181,
      "بولا": 6182,
      "خوت": 6183,
      "ليان": 6184,
      "نوف": 6185,
      "ونات": 6186,
      "ليسا": 6187,
      "ورط": 6188,
      "ليستيون": 6189,
      "ينفور": 6190,
      "بيق": 6191,
      "كتافها": 6192,
      "يبيسودي": 6193,
      "دريسسي": 6194,
      "بيناتنا": 6195,
      "لقاتها": 6196,
      "يهضر": 6197,
      "سياو": 6198,
      "راديومايشا": 6199,
      "سومبا": 6200,
      "ريديس": 6201,
      "حياتها": 6202,
      "تعا": 6203,
      "هممم": 6204,
      "فرينش": 6205,
      "توقع": 6206,
      "ركبات": 6207,
      "هنادي": 6208,
      "كيندا": 6209,
      "نفي": 6210,
      "وسد": 6211,
      "الفيلا": 6212,
      "سسوري": 6213,
      "بحب": 6214,
      "تنفس": 6215,
      "البيض": 6216,
      "شون": 6217,
      "قاات": 6218,
      "رييي": 6219,
      "ماح": 6220,
      "للور": 6221,
      "متكي": 6222,
      "زيا": 6223,
      "ارسلان": 6224,
      "تنعس": 6225,
      "هزاء": 6226,
      "مسو": 6227,
      "ديدن": 6228,
      "زاكي": 6229,
      "باااا": 6230,
      "يسري": 6231,
      "انهم": 6232,
      "مبوا": 6233,
      "طلعي": 6234,
      "زوو": 6235,
      "تخلي": 6236,
      "فويتوري": 6237,
      "باباك": 6238,
      "فعنقها": 6239,
      "علاقه": 6240,
      "بشكل": 6241,
      "سابلي": 6242,
      "عايش": 6243,
      "غبر": 6244,
      "اسماعيل": 6245,
      "ميانس": 6246,
      "جابو": 6247,
      "داوي": 6248,
      "غد": 6249,
      "نقطه": 6250,
      "زاه": 6251,
      "فظ": 6252,
      "عيات": 6253,
      "هونيست": 6254,
      "ونع": 6255,
      "فييوس": 6256,
      "تراس": 6257,
      "الوس": 6258,
      "مرتي": 6259,
      "عشق": 6260,
      "دمعه": 6261,
      "ليسيت": 6262,
      "سنو": 6263,
      "الرو": 6264,
      "راببيل": 6265,
      "صبري": 6266,
      "مثل": 6267,
      "فوتو": 6268,
      "زورو": 6269,
      "عال": 6270,
      "دودو": 6271,
      "مونثس": 6272,
      "مسه": 6273,
      "جيسوس": 6274,
      "وزي": 6275,
      "سوييت": 6276,
      "مادان": 6277,
      "رايت": 6278,
      "ييستير": 6279,
      "ماسس": 6280,
      "تاكيس": 6281,
      "لولا": 6282,
      "الدموع": 6283,
      "زط": 6284,
      "كاريم": 6285,
      "جيسب": 6286,
      "صوره": 6287,
      "بينسايس": 6288,
      "دازو": 6289,
      "سوبليت": 6290,
      "تلاح": 6291,
      "وبليك": 6292,
      "راجلها": 6293,
      "عاده": 6294,
      "رط": 6295,
      "مايمكنش": 6296,
      "ادد": 6297,
      "ارات": 6298,
      "ثلوج": 6299,
      "خلاص": 6300,
      "ناتو": 6301,
      "وييكس": 6302,
      "روبين": 6303,
      "ستودي": 6304,
      "البها": 6305,
      "بسه": 6306,
      "فيانسو": 6307,
      "سابت": 6308,
      "هوك": 6309,
      "مورير": 6310,
      "فرحان": 6311,
      "بمعني": 6312,
      "عزيز": 6313,
      "ووع": 6314,
      "بورديل": 6315,
      "يستينك": 6316,
      "تام": 6317,
      "صدمه": 6318,
      "دوره": 6319,
      "طبعا": 6320,
      "عاار": 6321,
      "فرانس": 6322,
      "جعفر": 6323,
      "اصبح": 6324,
      "بعضهم": 6325,
      "برس": 6326,
      "سونسورس": 6327,
      "ريفو": 6328,
      "كسوه": 6329,
      "تيكتوك": 6330,
      "لحد": 6331,
      "كيدوز": 6332,
      "يستاس": 6333,
      "لحظه": 6334,
      "جنبو": 6335,
      "جرا": 6336,
      "نييي": 6337,
      "ستاكي": 6338,
      "جامه": 6339,
      "سوفينت": 6340,
      "سوربس": 6341,
      "مجيد": 6342,
      "وريه": 6343,
      "نسمع": 6344,
      "بحزن": 6345,
      "شوووف": 6346,
      "مغن": 6347,
      "هالا": 6348,
      "فطر": 6349,
      "ااح": 6350,
      "باث": 6351,
      "كيتر": 6352,
      "حياتك": 6353,
      "غيكون": 6354,
      "تومبير": 6355,
      "كيرا": 6356,
      "حتال": 6357,
      "بغيني": 6358,
      "كترعد": 6359,
      "للحمام": 6360,
      "تبه": 6361,
      "طلعها": 6362,
      "سيتيز": 6363,
      "ولك": 6364,
      "سء": 6365,
      "هاتا": 6366,
      "ريلي": 6367,
      "وانكو": 6368,
      "سمو": 6369,
      "مينوس": 6370,
      "شيكا": 6371,
      "لوش": 6372,
      "كفاش": 6373,
      "كوش": 6374,
      "كوكلي": 6375,
      "داات": 6376,
      "ابتاسم": 6377,
      "لبيتو": 6378,
      "قبيله": 6379,
      "عنداك": 6380,
      "ينتيرفييو": 6381,
      "بديك": 6382,
      "خصني": 6383,
      "اااب": 6384,
      "راسسي": 6385,
      "اذن": 6386,
      "تكمل": 6387,
      "راره": 6388,
      "اااان": 6389,
      "وسام": 6390,
      "غدير": 6391,
      "المراه": 6392,
      "شفتو": 6393,
      "الجن": 6394,
      "بهمس": 6395,
      "الضو": 6396,
      "رابه": 6397,
      "راضيه": 6398,
      "ستيين": 6399,
      "فوريفير": 6400,
      "جيش": 6401,
      "اميريسا": 6402,
      "نتاا": 6403,
      "فياواي": 6404,
      "قوليك": 6405,
      "سوميتيميس": 6406,
      "راسه": 6407,
      "ئج": 6408,
      "كوسسي": 6409,
      "قالك": 6410,
      "الاد": 6411,
      "مايور": 6412,
      "كسغ": 6413,
      "فيكي": 6414,
      "هتتبستسووق": 6415,
      "تبقا": 6416,
      "فوليز": 6417,
      "بينوار": 6418,
      "يكسسيتي": 6419,
      "سولت": 6420,
      "ماقدر": 6421,
      "وبعد": 6422,
      "ومان": 6423,
      "جيداء": 6424,
      "جوستيمينت": 6425,
      "اليم": 6426,
      "تفكير": 6427,
      "روعه": 6428,
      "قءي": 6429,
      "الرحمان": 6430,
      "لاتير": 6431,
      "كيحس": 6432,
      "قود": 6433,
      "بورتير": 6434,
      "ريسسي": 6435,
      "الكلام": 6436,
      "ياااا": 6437,
      "يكسسوسي": 6438,
      "دوزات": 6439,
      "حشومه": 6440,
      "موضوع": 6441,
      "جح": 6442,
      "اوووو": 6443,
      "بالضحك": 6444,
      "فقت": 6445,
      "ميلل": 6446,
      "موثير": 6447,
      "تسنا": 6448,
      "راندو": 6449,
      "ليفون": 6450,
      "كريست": 6451,
      "ذياب": 6452,
      "صقر": 6453,
      "موسولمانس": 6454,
      "ديناميتي": 6455,
      "سيستي": 6456,
      "سمالل": 6457,
      "ختو": 6458,
      "فويلي": 6459,
      "ضهرو": 6460,
      "تاكس": 6461,
      "ؤال": 6462,
      "المص": 6463,
      "وانتس": 6464,
      "معااك": 6465,
      "زادو": 6466,
      "ارتيس": 6467,
      "كيفياواي": 6468,
      "لابور": 6469,
      "برينس": 6470,
      "امبي": 6471,
      "الموست": 6472,
      "سبورت": 6473,
      "عما": 6474,
      "مينو": 6475,
      "نخرجو": 6476,
      "الحر": 6477,
      "مولتي": 6478,
      "كيع": 6479,
      "جيهتها": 6480,
      "دائ": 6481,
      "بوحدك": 6482,
      "تقاد": 6483,
      "ويلا": 6484,
      "طبيبه": 6485,
      "ارسينال": 6486,
      "حض": 6487,
      "طاب": 6488,
      "كانا": 6489,
      "كتير": 6490,
      "واالو": 6491,
      "ايسي": 6492,
      "سوء": 6493,
      "تبر": 6494,
      "خبار": 6495,
      "ويسي": 6496,
      "ينتيري": 6497,
      "حامي": 6498,
      "فاني": 6499,
      "كانها": 6500,
      "الاخري": 6501,
      "ناد": 6502,
      "ريسبونسي": 6503,
      "عتي": 6504,
      "اركينت": 6505,
      "كسط": 6506,
      "نهج": 6507,
      "خبط": 6508,
      "الكي": 6509,
      "واص": 6510,
      "قوق": 6511,
      "صعيب": 6512,
      "خاصنا": 6513,
      "تاسمه": 6514,
      "دقيقه": 6515,
      "نموت": 6516,
      "سيان": 6517,
      "لاحت": 6518,
      "مكره": 6519,
      "فييوكس": 6520,
      "تحس": 6521,
      "اورايس": 6522,
      "لليت": 6523,
      "كسيت": 6524,
      "حلف": 6525,
      "دني": 6526,
      "سيور": 6527,
      "بلايليست": 6528,
      "هانتي": 6529,
      "جرح": 6530,
      "سهي": 6531,
      "ديوكسي": 6532,
      "شهاب": 6533,
      "مرس": 6534,
      "سمعتي": 6535,
      "اليط": 6536,
      "ريسول": 6537,
      "زرب": 6538,
      "عود": 6539,
      "كركر": 6540,
      "عنقاتها": 6541,
      "بواحد": 6542,
      "بوارد": 6543,
      "تومب": 6544,
      "ببرود": 6545,
      "يوصل": 6546,
      "بنتو": 6547,
      "ايلي": 6548,
      "اببيللي": 6549,
      "مدير": 6550,
      "الماء": 6551,
      "اااح": 6552,
      "هيور": 6553,
      "راببيللي": 6554,
      "عجبني": 6555,
      "كيغ": 6556,
      "لوففي": 6557,
      "خيير": 6558,
      "يرح": 6559,
      "شووس": 6560,
      "بارتيسي": 6561,
      "اوجورد": 6562,
      "كخ": 6563,
      "يوا": 6564,
      "امنيه": 6565,
      "فييلد": 6566,
      "وشا": 6567,
      "مومي": 6568,
      "جيستي": 6569,
      "مادامي": 6570,
      "بالايجاب": 6571,
      "تماا": 6572,
      "اسسور": 6573,
      "سيسريت": 6574,
      "سلط": 6575,
      "عالم": 6576,
      "هتتبستسواي": 6577,
      "ناب": 6578,
      "ئله": 6579,
      "ميغ": 6580,
      "اسسيست": 6581,
      "كاكني": 6582,
      "العاب": 6583,
      "زعمه": 6584,
      "يسمع": 6585,
      "اسسيبت": 6586,
      "هديل": 6587,
      "وفر": 6588,
      "يارا": 6589,
      "طعم": 6590,
      "تني": 6591,
      "كيين": 6592,
      "معاكم": 6593,
      "مكاينش": 6594,
      "الكاس": 6595,
      "وايتينك": 6596,
      "توه": 6597,
      "للل": 6598,
      "لاف": 6599,
      "داوت": 6600,
      "ولس": 6601,
      "سوندس": 6602,
      "يسترو": 6603,
      "البط": 6604,
      "فريري": 6605,
      "تفكرات": 6606,
      "هتتبستسوهي": 6607,
      "ناق": 6608,
      "خوها": 6609,
      "سيونيس": 6610,
      "سونف": 6611,
      "ونيفير": 6612,
      "فييس": 6613,
      "بادو": 6614,
      "كريسس": 6615,
      "ياست": 6616,
      "طيفه": 6617,
      "سوجيت": 6618,
      "هبطو": 6619,
      "كلامها": 6620,
      "توجه": 6621,
      "هتتبستسوجي": 6622,
      "ديسيكن": 6623,
      "لارك": 6624,
      "بريوفي": 6625,
      "لوساس": 6626,
      "شعري": 6627,
      "مدو": 6628,
      "اااس": 6629,
      "ديسسو": 6630,
      "وجل": 6631,
      "وركان": 6632,
      "واع": 6633,
      "تروث": 6634,
      "بلوقو": 6635,
      "اكت": 6636,
      "ينيه": 6637,
      "كسيد": 6638,
      "طياره": 6639,
      "فقد": 6640,
      "عارفا": 6641,
      "مبغيتش": 6642,
      "وغادي": 6643,
      "جامعه": 6644,
      "سييمبري": 6645,
      "وووك": 6646,
      "قالها": 6647,
      "لكوزينه": 6648,
      "وعاد": 6649,
      "ساينت": 6650,
      "ونيد": 6651,
      "يدينتي": 6652,
      "دييب": 6653,
      "يقوي": 6654,
      "شوه": 6655,
      "يلييس": 6656,
      "الوق": 6657,
      "وتتي": 6658,
      "بده": 6659,
      "زها": 6660,
      "وبو": 6661,
      "باتا": 6662,
      "هتتبستسوبف": 6663,
      "ابات": 6664,
      "فتره": 6665,
      "سييك": 6666,
      "اهر": 6667,
      "وحنا": 6668,
      "الفطور": 6669,
      "اكين": 6670,
      "اكون": 6671,
      "فشكل": 6672,
      "صفر": 6673,
      "الزواج": 6674,
      "ميدو": 6675,
      "فينما": 6676,
      "شعور": 6677,
      "مشاا": 6678,
      "صغر": 6679,
      "ليفراي": 6680,
      "ارش": 6681,
      "نام": 6682,
      "تاكل": 6683,
      "نووو": 6684,
      "سيريي": 6685,
      "طور": 6686,
      "حداهم": 6687,
      "كلوبال": 6688,
      "تشي": 6689,
      "ستوفف": 6690,
      "تعاود": 6691,
      "سينتير": 6692,
      "هتتبستسوبب": 6693,
      "صمت": 6694,
      "وووت": 6695,
      "روند": 6696,
      "دومب": 6697,
      "مجرد": 6698,
      "تتشوف": 6699,
      "فوم": 6700,
      "سميتها": 6701,
      "عدن": 6702,
      "جخ": 6703,
      "فسك": 6704,
      "ءب": 6705,
      "كاف": 6706,
      "خايف": 6707,
      "هيلي": 6708,
      "رجف": 6709,
      "بالح": 6710,
      "ورين": 6711,
      "هزيت": 6712,
      "قلو": 6713,
      "دانييل": 6714,
      "جدا": 6715,
      "قنت": 6716,
      "سوليس": 6717,
      "سوما": 6718,
      "ايير": 6719,
      "ركبه": 6720,
      "مزيي": 6721,
      "سعيد": 6722,
      "كنيو": 6723,
      "ركبو": 6724,
      "اوووف": 6725,
      "قتي": 6726,
      "علی": 6727,
      "فريال": 6728,
      "نجلاء": 6729,
      "لدس": 6730,
      "دييد": 6731,
      "شبه": 6732,
      "عله": 6733,
      "دوست": 6734,
      "ستيتو": 6735,
      "بففف": 6736,
      "ذب": 6737,
      "صونا": 6738,
      "ريفرا": 6739,
      "ينفيست": 6740,
      "ثلا": 6741,
      "نيللي": 6742,
      "قويتتي": 6743,
      "جره": 6744,
      "سوسك": 6745,
      "مويين": 6746,
      "وسسا": 6747,
      "سوفت": 6748,
      "بارسيل": 6749,
      "قائق": 6750,
      "سيفط": 6751,
      "ليفينك": 6752,
      "عوي": 6753,
      "والك": 6754,
      "سونفيانسي": 6755,
      "وبل": 6756,
      "كيدي": 6757,
      "وثيرس": 6758,
      "رااا": 6759,
      "وران": 6760,
      "الكيريي": 6761,
      "ريمار": 6762,
      "ميرو": 6763,
      "بيززا": 6764,
      "شورط": 6765,
      "التو": 6766,
      "ريكري": 6767,
      "يريه": 6768,
      "تينكو": 6769,
      "سوممونيتي": 6770,
      "الاولي": 6771,
      "ستادي": 6772,
      "سييينك": 6773,
      "يارب": 6774,
      "اتتيندس": 6775,
      "ييستيرداي": 6776,
      "حيا": 6777,
      "سيرو": 6778,
      "الشو": 6779,
      "منز": 6780,
      "باموجا": 6781,
      "ولوك": 6782,
      "مانت": 6783,
      "ليمي": 6784,
      "هتتبستسوتي": 6785,
      "المكتب": 6786,
      "وبرا": 6787,
      "فينانسي": 6788,
      "ديريكت": 6789,
      "رامادان": 6790,
      "ديفينيتيلي": 6791,
      "سيلفا": 6792,
      "يتالي": 6793,
      "تزو": 6794,
      "خالد": 6795,
      "اكتر": 6796,
      "ءر": 6797,
      "نقز": 6798,
      "موسليم": 6799,
      "دوزي": 6800,
      "فوج": 6801,
      "سشي": 6802,
      "سمعو": 6803,
      "درجه": 6804,
      "ردت": 6805,
      "ميجه": 6806,
      "ارابيس": 6807,
      "خوه": 6808,
      "بوبلي": 6809,
      "افر": 6810,
      "عااد": 6811,
      "اميريسان": 6812,
      "البلاصه": 6813,
      "ناروتو": 6814,
      "ميرس": 6815,
      "وصلنا": 6816,
      "يستر": 6817,
      "مينوتي": 6818,
      "سسيينسي": 6819,
      "مجمع": 6820,
      "ديبوت": 6821,
      "ييش": 6822,
      "كتمسح": 6823,
      "رئبال": 6824,
      "بيرك": 6825,
      "ابسولوتيلي": 6826,
      "الامو": 6827,
      "كلاد": 6828,
      "يدا": 6829,
      "سسر": 6830,
      "ستراي": 6831,
      "يسسوي": 6832,
      "قولو": 6833,
      "ريما": 6834,
      "مارياكي": 6835,
      "حااجه": 6836,
      "هاببينيد": 6837,
      "سووت": 6838,
      "سبه": 6839,
      "عندكم": 6840,
      "نعسات": 6841,
      "عنف": 6842,
      "طلقها": 6843,
      "اشيتير": 6844,
      "بوفيز": 6845,
      "بيردس": 6846,
      "سينتري": 6847,
      "جاورايس": 6848,
      "عارفين": 6849,
      "دراعها": 6850,
      "يماكي": 6851,
      "دوسو": 6852,
      "معامن": 6853,
      "عرفش": 6854,
      "فرييزي": 6855,
      "رامي": 6856,
      "يسيلي": 6857,
      "كيمسح": 6858,
      "ونيه": 6859,
      "هضري": 6860,
      "هت": 6861,
      "هتتبستسوني": 6862,
      "ييييييي": 6863,
      "ينكا": 6864,
      "هتتبستسوزي": 6865,
      "جوديه": 6866,
      "نفسو": 6867,
      "يسكي": 6868,
      "ففس": 6869,
      "مشينا": 6870,
      "انسوير": 6871,
      "وسل": 6872,
      "عرها": 6873,
      "لحق": 6874,
      "مولي": 6875,
      "ينيركي": 6876,
      "سوكس": 6877,
      "زاز": 6878,
      "ريفراين": 6879,
      "كيير": 6880,
      "اسه": 6881,
      "دييس": 6882,
      "سيرييس": 6883,
      "الامور": 6884,
      "افايلا": 6885,
      "وكلي": 6886,
      "ميرسييي": 6887,
      "كاتيكا": 6888,
      "يكسترا": 6889,
      "اماني": 6890,
      "سسوتت": 6891,
      "ورال": 6892,
      "متاكده": 6893,
      "لحمام": 6894,
      "ققخ": 6895,
      "جسوي": 6896,
      "كتسنا": 6897,
      "قاليا": 6898,
      "ديرري": 6899,
      "مضه": 6900,
      "بيلليس": 6901,
      "يتير": 6902,
      "يفينت": 6903,
      "الفا": 6904,
      "فلم": 6905,
      "كيجي": 6906,
      "تويتش": 6907,
      "اننونسي": 6908,
      "لايسسير": 6909,
      "ماار": 6910,
      "غنت": 6911,
      "زهر": 6912,
      "تلف": 6913,
      "فتحات": 6914,
      "زكرياء": 6915,
      "وماي": 6916,
      "بعيده": 6917,
      "ظهرها": 6918,
      "الخوف": 6919,
      "خصك": 6920,
      "رااسها": 6921,
      "تعرفي": 6922,
      "تبغي": 6923,
      "شعل": 6924,
      "يكمل": 6925,
      "اهورا": 6926,
      "يمير": 6927,
      "كلوو": 6928,
      "تشوفي": 6929,
      "امتي": 6930,
      "سيرتاينس": 6931,
      "ماكات": 6932,
      "كونش": 6933,
      "وزير": 6934,
      "مامان": 6935,
      "لومي": 6936,
      "يرييس": 6937,
      "للاس": 6938,
      "ميستير": 6939,
      "كيطلع": 6940,
      "هتتبستسووو": 6941,
      "مكنتش": 6942,
      "سريو": 6943,
      "جيبي": 6944,
      "راشي": 6945,
      "شيلدرين": 6946,
      "بض": 6947,
      "ساسيس": 6948,
      "بيلكي": 6949,
      "نورا": 6950,
      "موروسسو": 6951,
      "هاري": 6952,
      "تاو": 6953,
      "تعصب": 6954,
      "ديمارا": 6955,
      "ذن": 6956,
      "كتحرك": 6957,
      "يننينت": 6958,
      "كينكس": 6959,
      "استويللي": 6960,
      "جبهتها": 6961,
      "يسبير": 6962,
      "لينيس": 6963,
      "يال": 6964,
      "هيك": 6965,
      "احساس": 6966,
      "نل": 6967,
      "ديكيت": 6968,
      "رود": 6969,
      "مينير": 6970,
      "فيوليت": 6971,
      "ديسبو": 6972,
      "هياا": 6973,
      "تويس": 6974,
      "لاع": 6975,
      "سالمي": 6976,
      "ستارس": 6977,
      "شنووو": 6978,
      "جبينسي": 6979,
      "راسيستي": 6980,
      "اريج": 6981,
      "وللاه": 6982,
      "ارم": 6983,
      "هورريبلي": 6984,
      "هتتبستسومي": 6985,
      "كاوشي": 6986,
      "ساهيه": 6987,
      "بوستي": 6988,
      "الثانيه": 6989,
      "سوبا": 6990,
      "درهم": 6991,
      "كلت": 6992,
      "جاء": 6993,
      "ابتهال": 6994,
      "نسول": 6995,
      "الاع": 6996,
      "انتويني": 6997,
      "ليفري": 6998,
      "كريمه": 6999,
      "بعدها": 7000,
      "ونكا": 7001,
      "مركز": 7002,
      "ياكي": 7003,
      "ستيبه": 7004,
      "فويي": 7005,
      "زيس": 7006,
      "مفر": 7007,
      "الفرحه": 7008,
      "زج": 7009,
      "هادوك": 7010,
      "ايش": 7011,
      "براكه": 7012,
      "جاتها": 7013,
      "هوكي": 7014,
      "نوبودي": 7015,
      "فوروارد": 7016,
      "مارت": 7017,
      "يكسسيتيد": 7018,
      "راسونتي": 7019,
      "ريدي": 7020,
      "نيف": 7021,
      "نود": 7022,
      "رضي": 7023,
      "كلف": 7024,
      "عطاه": 7025,
      "كسخ": 7026,
      "عاات": 7027,
      "بيليتي": 7028,
      "بحده": 7029,
      "جويس": 7030,
      "ييها": 7031,
      "قويلقو": 7032,
      "بيج": 7033,
      "بريان": 7034,
      "غتكون": 7035,
      "ايريس": 7036,
      "صم": 7037,
      "حيدو": 7038,
      "جدو": 7039,
      "يااا": 7040,
      "انكيل": 7041,
      "لعبو": 7042,
      "خرين": 7043,
      "ساتش": 7044,
      "كاينين": 7045,
      "بغيتو": 7046,
      "غسلات": 7047,
      "ينغ": 7048,
      "مينتير": 7049,
      "اخيرا": 7050,
      "عرق": 7051,
      "بروبه": 7052,
      "بيستوري": 7053,
      "سيرت": 7054,
      "قربت": 7055,
      "مبوني": 7056,
      "دمو": 7057,
      "وخرجت": 7058,
      "الالم": 7059,
      "يبهوني": 7060,
      "جيهان": 7061,
      "نيككا": 7062,
      "هيشام": 7063,
      "واكو": 7064,
      "شيا": 7065,
      "ديكي": 7066,
      "بوتو": 7067,
      "فلور": 7068,
      "خلاه": 7069,
      "ثوماس": 7070,
      "كيفت": 7071,
      "بروجيت": 7072,
      "وته": 7073,
      "واف": 7074,
      "يقو": 7075,
      "انيء": 7076,
      "يفا": 7077,
      "لايري": 7078,
      "لمهم": 7079,
      "سوممينسير": 7080,
      "اتيلي": 7081,
      "الشمس": 7082,
      "يبان": 7083,
      "فالبيت": 7084,
      "تقطع": 7085,
      "رونالدو": 7086,
      "جارريفي": 7087,
      "لمه": 7088,
      "الابتسامه": 7089,
      "سيبت": 7090,
      "ساء": 7091,
      "شيرشير": 7092,
      "وازي": 7093,
      "طواليط": 7094,
      "شوش": 7095,
      "فراسي": 7096,
      "هاهو": 7097,
      "عوبه": 7098,
      "ساح": 7099,
      "فويلا": 7100,
      "بيهيند": 7101,
      "زوف": 7102,
      "هومو": 7103,
      "البرد": 7104,
      "ولبس": 7105,
      "كوتتا": 7106,
      "رجلي": 7107,
      "تونيد": 7108,
      "نيتو": 7109,
      "احح": 7110,
      "سميتو": 7111,
      "عجبها": 7112,
      "قالو": 7113,
      "رواد": 7114,
      "لوري": 7115,
      "فايليد": 7116,
      "الشركه": 7117,
      "وخرجو": 7118,
      "هيبي": 7119,
      "نوان": 7120,
      "يرر": 7121,
      "كسيي": 7122,
      "اللول": 7123,
      "بانها": 7124,
      "بيوفينت": 7125,
      "سوبب": 7126,
      "عاقد": 7127,
      "ناردين": 7128,
      "افايلابلي": 7129,
      "كتي": 7130,
      "يبرا": 7131,
      "سييد": 7132,
      "هتتبستسوكن": 7133,
      "شارليس": 7134,
      "حوايجي": 7135,
      "ديسسري": 7136,
      "موندو": 7137,
      "يوب": 7138,
      "افريسان": 7139,
      "موف": 7140,
      "غوب": 7141,
      "يعطيك": 7142,
      "وترو": 7143,
      "سوند": 7144,
      "بسخريه": 7145,
      "العام": 7146,
      "بيكين": 7147,
      "بينات": 7148,
      "سونفيرس": 7149,
      "مزيانه": 7150,
      "حار": 7151,
      "تايينت": 7152,
      "فاسانسيس": 7153,
      "ريلا": 7154,
      "رررررر": 7155,
      "غاديين": 7156,
      "اتير": 7157,
      "التق": 7158,
      "قوول": 7159,
      "غيو": 7160,
      "ونش": 7161,
      "كلمات": 7162,
      "لبلاصه": 7163,
      "وسكي": 7164,
      "ينتيللي": 7165,
      "نعا": 7166,
      "اهلا": 7167,
      "اتييا": 7168,
      "لومات": 7169,
      "عفااك": 7170,
      "داسس": 7171,
      "وجع": 7172,
      "مابقاش": 7173,
      "لاوتري": 7174,
      "كيسمع": 7175,
      "غع": 7176,
      "ساساوي": 7177,
      "نييس": 7178,
      "ينتيرناتيونال": 7179,
      "حنكها": 7180,
      "الممرضه": 7181,
      "فرانك": 7182,
      "غايكون": 7183,
      "ضرات": 7184,
      "خش": 7185,
      "تبان": 7186,
      "سترا": 7187,
      "بامبا": 7188,
      "قويست": 7189,
      "شافتها": 7190,
      "ساتور": 7191,
      "ااها": 7192,
      "رااسو": 7193,
      "بيضه": 7194,
      "سموي": 7195,
      "ليدي": 7196,
      "مبين": 7197,
      "لء": 7198,
      "اااي": 7199,
      "وتش": 7200,
      "تومبي": 7201,
      "انسه": 7202,
      "بينزيما": 7203,
      "هتتبستسويم": 7204,
      "تاشي": 7205,
      "عره": 7206,
      "كونت": 7207,
      "يفان": 7208,
      "جافوي": 7209,
      "لهيه": 7210,
      "كملت": 7211,
      "بريسقوي": 7212,
      "زاب": 7213,
      "نال": 7214,
      "واضح": 7215,
      "عقلك": 7216,
      "فيديوس": 7217,
      "الرج": 7218,
      "الباا": 7219,
      "موبيلي": 7220,
      "بارسا": 7221,
      "الاج": 7222,
      "وجلسات": 7223,
      "كولها": 7224,
      "اشا": 7225,
      "اميي": 7226,
      "جمال": 7227,
      "مايلل": 7228,
      "ايهم": 7229,
      "سونفين": 7230,
      "بيللا": 7231,
      "لاين": 7232,
      "موعه": 7233,
      "لوفيس": 7234,
      "يستيد": 7235,
      "مصدوم": 7236,
      "تخط": 7237,
      "سبر": 7238,
      "بلانت": 7239,
      "ستيي": 7240,
      "وهوس": 7241,
      "رانيا": 7242,
      "مينيستري": 7243,
      "تلق": 7244,
      "هتتبستسووف": 7245,
      "تالينت": 7246,
      "تغوت": 7247,
      "مبتاسمه": 7248,
      "ئي": 7249,
      "اهاهاهاها": 7250,
      "انشاء": 7251,
      "خطي": 7252,
      "هتتبستسوين": 7253,
      "نيفها": 7254,
      "جوكا": 7255,
      "عطاتو": 7256,
      "كيفف": 7257,
      "مينه": 7258,
      "قبر": 7259,
      "داتا": 7260,
      "ستيب": 7261,
      "ميموري": 7262,
      "للكوزينه": 7263,
      "المغر": 7264,
      "مابقيتش": 7265,
      "عتا": 7266,
      "يسن": 7267,
      "صابر": 7268,
      "جوم": 7269,
      "ديفينير": 7270,
      "هنااا": 7271,
      "ظيم": 7272,
      "مراتي": 7273,
      "كالسه": 7274,
      "والل": 7275,
      "تفيق": 7276,
      "رن": 7277,
      "شششش": 7278,
      "نسيتي": 7279,
      "دومين": 7280,
      "مزيره": 7281,
      "بارر": 7282,
      "وتها": 7283,
      "باسيد": 7284,
      "تايللي": 7285,
      "ياسس": 7286,
      "حيدي": 7287,
      "باسسيون": 7288,
      "هتتبستسوتو": 7289,
      "عامل": 7290,
      "بوين": 7291,
      "نيسولا": 7292,
      "نرجعو": 7293,
      "تصدم": 7294,
      "حوي": 7295,
      "الفراش": 7296,
      "لمياء": 7297,
      "صغار": 7298,
      "طها": 7299,
      "الرباط": 7300,
      "هتتبستسوسن": 7301,
      "علاااش": 7302,
      "ساندي": 7303,
      "شوق": 7304,
      "وراي": 7305,
      "فوان": 7306,
      "ديرن": 7307,
      "بايكس": 7308,
      "لمح": 7309,
      "زمان": 7310,
      "عفت": 7311,
      "باوفري": 7312,
      "ينكليش": 7313,
      "التا": 7314,
      "سييس": 7315,
      "فوف": 7316,
      "تقل": 7317,
      "كديري": 7318,
      "بيرفور": 7319,
      "اووف": 7320,
      "الكوزينه": 7321,
      "بارري": 7322,
      "بونس": 7323,
      "رتيل": 7324,
      "لوسال": 7325,
      "مارسييللي": 7326,
      "ليااا": 7327,
      "تيليفونها": 7328,
      "لفي": 7329,
      "ويزا": 7330,
      "دالي": 7331,
      "بالضبط": 7332,
      "ماغاديش": 7333,
      "ميها": 7334,
      "توكو": 7335,
      "الشوفه": 7336,
      "الكلمه": 7337,
      "زوا": 7338,
      "اتيقوي": 7339,
      "المه": 7340,
      "بارايس": 7341,
      "ححح": 7342,
      "الماكله": 7343,
      "اهاهاه": 7344,
      "فوللوويد": 7345,
      "شاس": 7346,
      "ينيتي": 7347,
      "وجر": 7348,
      "نينا": 7349,
      "عقلها": 7350,
      "امممم": 7351,
      "بعو": 7352,
      "الاقل": 7353,
      "عصمان": 7354,
      "الكون": 7355,
      "كيصوني": 7356,
      "امان": 7357,
      "الانت": 7358,
      "رييو": 7359,
      "كيكا": 7360,
      "هولا": 7361,
      "مراتو": 7362,
      "هويو": 7363,
      "دقات": 7364,
      "بييه": 7365,
      "مشغ": 7366,
      "فاسسي": 7367,
      "يكستر": 7368,
      "البار": 7369,
      "لغرفه": 7370,
      "هتتبستسوبز": 7371,
      "بدول": 7372,
      "ضغط": 7373,
      "ارريف": 7374,
      "فيشي": 7375,
      "توتو": 7376,
      "سريي": 7377,
      "اوه": 7378,
      "شويسي": 7379,
      "يسول": 7380,
      "ماركيت": 7381,
      "بااح": 7382,
      "بوات": 7383,
      "بلاكي": 7384,
      "الوضع": 7385,
      "اويسومي": 7386,
      "شيم": 7387,
      "الطموبيل": 7388,
      "عضات": 7389,
      "اجا": 7390,
      "حسا": 7391,
      "سيستير": 7392,
      "حيم": 7393,
      "كراندس": 7394,
      "خاطرك": 7395,
      "لوز": 7396,
      "عاق": 7397,
      "وورست": 7398,
      "علاه": 7399,
      "الاا": 7400,
      "سونكو": 7401,
      "فينوي": 7402,
      "طوو": 7403,
      "كسع": 7404,
      "دارون": 7405,
      "يسسانت": 7406,
      "بايد": 7407,
      "الصوت": 7408,
      "خم": 7409,
      "حياتو": 7410,
      "حوائج": 7411,
      "جني": 7412,
      "التيليفون": 7413,
      "تراش": 7414,
      "قبلها": 7415,
      "جفوس": 7416,
      "صها": 7417,
      "سومباني": 7418,
      "هدرات": 7419,
      "يطلع": 7420,
      "قويت": 7421,
      "تعي": 7422,
      "فيب": 7423,
      "فيولي": 7424,
      "ندم": 7425,
      "ستس": 7426,
      "سونكس": 7427,
      "كلسات": 7428,
      "بوكو": 7429,
      "ناموسيه": 7430,
      "ابتسم": 7431,
      "ودموع": 7432,
      "كينيرال": 7433,
      "ابتسام": 7434,
      "ميله": 7435,
      "ااع": 7436,
      "سباسي": 7437,
      "بهيلي": 7438,
      "تعص": 7439,
      "سوببريمي": 7440,
      "لبني": 7441,
      "خنزرات": 7442,
      "معصبه": 7443,
      "ستوس": 7444,
      "هتتبستسوبه": 7445,
      "ماندي": 7446,
      "كابيسا": 7447,
      "بهراسي": 7448,
      "بروشي": 7449,
      "خلف": 7450,
      "شاركي": 7451,
      "صيبه": 7452,
      "سويل": 7453,
      "ديبلي": 7454,
      "ابنت": 7455,
      "مونتي": 7456,
      "لعبه": 7457,
      "ليللاه": 7458,
      "ديموسرات": 7459,
      "وديك": 7460,
      "نييمار": 7461,
      "نعيش": 7462,
      "يبا": 7463,
      "فاااك": 7464,
      "تبعد": 7465,
      "نوبي": 7466,
      "ديفر": 7467,
      "هتتبستسوبن": 7468,
      "عيالات": 7469,
      "سيونال": 7470,
      "يييه": 7471,
      "ويننير": 7472,
      "يارلي": 7473,
      "سيونس": 7474,
      "يمبريسسيون": 7475,
      "ويني": 7476,
      "النور": 7477,
      "ورج": 7478,
      "كيلليد": 7479,
      "ياااك": 7480,
      "دريفي": 7481,
      "هيبير": 7482,
      "بينيس": 7483,
      "لطيفه": 7484,
      "خود": 7485,
      "سلاير": 7486,
      "ينفيس": 7487,
      "وجمع": 7488,
      "كذلك": 7489,
      "الهم": 7490,
      "هيده": 7491,
      "امبا": 7492,
      "تنع": 7493,
      "يكسبيريينسي": 7494,
      "بدو": 7495,
      "ترويس": 7496,
      "بيلكا": 7497,
      "الصدمه": 7498,
      "جويلليت": 7499,
      "صديق": 7500,
      "مدا": 7501,
      "فوجهها": 7502,
      "انفاس": 7503,
      "اوب": 7504,
      "بدلات": 7505,
      "قداا": 7506,
      "لانه": 7507,
      "نمره": 7508,
      "اقول": 7509,
      "سبوت": 7510,
      "عدو": 7511,
      "زاير": 7512,
      "بلغ": 7513,
      "يسرايل": 7514,
      "كالو": 7515,
      "راات": 7516,
      "سبح": 7517,
      "ايدير": 7518,
      "ارتي": 7519,
      "ينتراين": 7520,
      "تصرف": 7521,
      "نوري": 7522,
      "مغمضه": 7523,
      "قاطعها": 7524,
      "يسسايير": 7525,
      "كوالس": 7526,
      "للارض": 7527,
      "وراء": 7528,
      "بلاا": 7529,
      "سورسيس": 7530,
      "فلح": 7531,
      "ويغ": 7532,
      "امينه": 7533,
      "تلاحت": 7534,
      "وامي": 7535,
      "سبون": 7536,
      "دياس": 7537,
      "تيما": 7538,
      "صاد": 7539,
      "فيررا": 7540,
      "البور": 7541,
      "انوني": 7542,
      "ذاب": 7543,
      "ناتوري": 7544,
      "بييك": 7545,
      "فارا": 7546,
      "بيردري": 7547,
      "يكسبيست": 7548,
      "لكم": 7549,
      "جويسي": 7550,
      "جيون": 7551,
      "بوللي": 7552,
      "وسسس": 7553,
      "فاثير": 7554,
      "سوكا": 7555,
      "كييد": 7556,
      "تتبكي": 7557,
      "بالفرحه": 7558,
      "قدم": 7559,
      "غيته": 7560,
      "كسافسما": 7561,
      "شال": 7562,
      "متكيه": 7563,
      "كتق": 7564,
      "سولييل": 7565,
      "خين": 7566,
      "انكا": 7567,
      "سوران": 7568,
      "هتتبستسونو": 7569,
      "اسكينك": 7570,
      "زاينه": 7571,
      "فيسا": 7572,
      "مااشي": 7573,
      "فياا": 7574,
      "فورمير": 7575,
      "وريت": 7576,
      "قوليها": 7577,
      "عطا": 7578,
      "موق": 7579,
      "هيريس": 7580,
      "ترتاح": 7581,
      "سراسك": 7582,
      "صع": 7583,
      "ظن": 7584,
      "ميميس": 7585,
      "هتتبستسووب": 7586,
      "فوقو": 7587,
      "نتزوج": 7588,
      "بوبول": 7589,
      "فيرت": 7590,
      "فينسينتاتييا": 7591,
      "فاد": 7592,
      "قاس": 7593,
      "هذه": 7594,
      "مما": 7595,
      "هتتبستسولق": 7596,
      "جوكير": 7597,
      "محطو": 7598,
      "مغمض": 7599,
      "يكيبتي": 7600,
      "دااا": 7601,
      "وحدا": 7602,
      "سالاه": 7603,
      "دويسن": 7604,
      "کی": 7605,
      "حاجب": 7606,
      "زلي": 7607,
      "خايبه": 7608,
      "وكلشي": 7609,
      "العشيه": 7610,
      "سوال": 7611,
      "شاسون": 7612,
      "اميين": 7613,
      "سلطانه": 7614,
      "خكس": 7615,
      "نتس": 7616,
      "هنيه": 7617,
      "باقه": 7618,
      "بلعات": 7619,
      "لازم": 7620,
      "سلس": 7621,
      "فهادشي": 7622,
      "ثيد": 7623,
      "كادي": 7624,
      "فاللايت": 7625,
      "ههههههههه": 7626,
      "فوللووباسك": 7627,
      "سوسيي": 7628,
      "قيتي": 7629,
      "بييرري": 7630,
      "الخاص": 7631,
      "قويي": 7632,
      "مالهيوريوسيمينت": 7633,
      "قاء": 7634,
      "مقاد": 7635,
      "مابغاتش": 7636,
      "نيسك": 7637,
      "هامزا": 7638,
      "ختار": 7639,
      "كانيي": 7640,
      "بفرحه": 7641,
      "بروك": 7642,
      "الصح": 7643,
      "مكر": 7644,
      "اللون": 7645,
      "جانبيه": 7646,
      "الورد": 7647,
      "فيبيس": 7648,
      "فوقاش": 7649,
      "ءند": 7650,
      "صلك": 7651,
      "تايل": 7652,
      "تانزانيا": 7653,
      "جوهنسون": 7654,
      "لاركي": 7655,
      "تيشنيقوي": 7656,
      "اوري": 7657,
      "مبتاسم": 7658,
      "سومير": 7659,
      "خاوي": 7660,
      "فيستويري": 7661,
      "خاس": 7662,
      "وييرد": 7663,
      "بييس": 7664,
      "كيدور": 7665,
      "ياخد": 7666,
      "لكو": 7667,
      "يكسيمبلي": 7668,
      "نعام": 7669,
      "دوف": 7670,
      "وياه": 7671,
      "نيلي": 7672,
      "امري": 7673,
      "انيش": 7674,
      "ناااا": 7675,
      "سيوم": 7676,
      "كاندا": 7677,
      "مكات": 7678,
      "عامره": 7679,
      "ناديه": 7680,
      "عصب": 7681,
      "بيككيست": 7682,
      "يففيستي": 7683,
      "مكو": 7684,
      "بوسير": 7685,
      "مخنز": 7686,
      "درويتي": 7687,
      "سكو": 7688,
      "غسل": 7689,
      "لفت": 7690,
      "تاما": 7691,
      "ديسيرفي": 7692,
      "راسيسمي": 7693,
      "بتعب": 7694,
      "العمليه": 7695,
      "تنزل": 7696,
      "سييمس": 7697,
      "شويس": 7698,
      "اههه": 7699,
      "موتو": 7700,
      "بيندي": 7701,
      "ينسبير": 7702,
      "اسود": 7703,
      "لوفيد": 7704,
      "وحطات": 7705,
      "ميسسينك": 7706,
      "شااف": 7707,
      "اته": 7708,
      "امينا": 7709,
      "اليز": 7710,
      "خاويه": 7711,
      "لاسي": 7712,
      "ققط": 7713,
      "لارد": 7714,
      "غوتات": 7715,
      "ريادينك": 7716,
      "سرح": 7717,
      "شكس": 7718,
      "ملامحها": 7719,
      "يكسسيللينت": 7720,
      "ونص": 7721,
      "ينستياد": 7722,
      "دينيس": 7723,
      "فيستوري": 7724,
      "توق": 7725,
      "فوجهو": 7726,
      "عيبه": 7727,
      "باروليس": 7728,
      "بفس": 7729,
      "غكس": 7730,
      "لعر": 7731,
      "سيريوس": 7732,
      "شداتها": 7733,
      "وووه": 7734,
      "مدرررررر": 7735,
      "دقائق": 7736,
      "تاستي": 7737,
      "ديسبوني": 7738,
      "تويتت": 7739,
      "سونا": 7740,
      "ااق": 7741,
      "ببط": 7742,
      "روال": 7743,
      "ريبورت": 7744,
      "الدي": 7745,
      "ستين": 7746,
      "وتق": 7747,
      "سابتاين": 7748,
      "زاس": 7749,
      "نيرو": 7750,
      "يسكت": 7751,
      "فيتا": 7752,
      "موند": 7753,
      "بحالها": 7754,
      "فبي": 7755,
      "بهيسي": 7756,
      "دكشي": 7757,
      "مطلع": 7758,
      "الاخير": 7759,
      "عرد": 7760,
      "سبيسي": 7761,
      "سيبتيون": 7762,
      "يماني": 7763,
      "القضيه": 7764,
      "يوقف": 7765,
      "هتتبستسودي": 7766,
      "هتتبستسورو": 7767,
      "عاء": 7768,
      "جيسس": 7769,
      "راجلي": 7770,
      "هيلا": 7771,
      "ععع": 7772,
      "حما": 7773,
      "البلا": 7774,
      "وبيس": 7775,
      "بلاييد": 7776,
      "عقلي": 7777,
      "جسمها": 7778,
      "وورري": 7779,
      "باتتري": 7780,
      "سيلينا": 7781,
      "يضرب": 7782,
      "الوو": 7783,
      "دارها": 7784,
      "يووسف": 7785,
      "جاسكسون": 7786,
      "جرب": 7787,
      "يرل": 7788,
      "هاوا": 7789,
      "سسار": 7790,
      "صبعو": 7791,
      "نيكس": 7792,
      "بيسومي": 7793,
      "ستوبيد": 7794,
      "مكانتش": 7795,
      "تفهم": 7796,
      "مخرجه": 7797,
      "شورت": 7798,
      "هتتبستسولي": 7799,
      "رومي": 7800,
      "بوبس": 7801,
      "موين": 7802,
      "هيبه": 7803,
      "جونيس": 7804,
      "اسير": 7805,
      "بزااااف": 7806,
      "يوك": 7807,
      "سيال": 7808,
      "فينتي": 7809,
      "ديرها": 7810,
      "ريسسيمبلي": 7811,
      "سيلينسي": 7812,
      "فيروز": 7813,
      "سيرين": 7814,
      "لفا": 7815,
      "وففي": 7816,
      "بيسسا": 7817,
      "تبقاي": 7818,
      "قعع": 7819,
      "ابتاسمات": 7820,
      "راسهاا": 7821,
      "فيولينسي": 7822,
      "وحيد": 7823,
      "كوبا": 7824,
      "ليتتي": 7825,
      "العشا": 7826,
      "صافا": 7827,
      "خاطري": 7828,
      "وبز": 7829,
      "باستهزاء": 7830,
      "ماليك": 7831,
      "ديفينو": 7832,
      "المرا": 7833,
      "مابين": 7834,
      "يخط": 7835,
      "جامبوكينيا": 7836,
      "يء": 7837,
      "لوفير": 7838,
      "كيندي": 7839,
      "ادهم": 7840,
      "بوليتيقوي": 7841,
      "فيندريدي": 7842,
      "نكمل": 7843,
      "لوفيلي": 7844,
      "ءخغ": 7845,
      "ينترا": 7846,
      "موسلي": 7847,
      "جفويس": 7848,
      "كوسي": 7849,
      "كتعرف": 7850,
      "بليي": 7851,
      "باندا": 7852,
      "بحالو": 7853,
      "لبر": 7854,
      "وحتا": 7855,
      "دما": 7856,
      "سوسين": 7857,
      "ماشا": 7858,
      "حشم": 7859,
      "سبور": 7860,
      "ابها": 7861,
      "ببيللي": 7862,
      "مزيااان": 7863,
      "فونستيون": 7864,
      "سانسير": 7865,
      "غادين": 7866,
      "مبقاش": 7867,
      "قليل": 7868,
      "وففين": 7869,
      "زيو": 7870,
      "يانك": 7871,
      "باتري": 7872,
      "ريستا": 7873,
      "درسه": 7874,
      "الشعر": 7875,
      "هتتبستسوتق": 7876,
      "حركه": 7877,
      "تخرجي": 7878,
      "هيال": 7879,
      "زيرات": 7880,
      "مخلوعه": 7881,
      "ثيك": 7882,
      "معنديش": 7883,
      "يجيب": 7884,
      "فيقي": 7885,
      "ميكر": 7886,
      "ونيون": 7887,
      "قيصر": 7888,
      "يممانويل": 7889,
      "ردي": 7890,
      "نعيط": 7891,
      "ييثير": 7892,
      "هيوريس": 7893,
      "ماسا": 7894,
      "كنتس": 7895,
      "فحياتي": 7896,
      "انكير": 7897,
      "كلثوم": 7898,
      "ميسسيد": 7899,
      "كتاكل": 7900,
      "رانكي": 7901,
      "جوردان": 7902,
      "ينوض": 7903,
      "هايا": 7904,
      "لؤ": 7905,
      "اوش": 7906,
      "جايين": 7907,
      "سوسن": 7908,
      "هرس": 7909,
      "تشوفو": 7910,
      "بابت": 7911,
      "امينتي": 7912,
      "سمحلي": 7913,
      "السبب": 7914,
      "غانمشي": 7915,
      "اكر": 7916,
      "كونك": 7917,
      "فهمت": 7918,
      "سوهايتي": 7919,
      "غرو": 7920,
      "هتتبستسواف": 7921,
      "ترابا": 7922,
      "ارب": 7923,
      "بريد": 7924,
      "ديفير": 7925,
      "بورتانت": 7926,
      "مافيها": 7927,
      "بروده": 7928,
      "شوسول": 7929,
      "سابق": 7930,
      "والح": 7931,
      "مغرب": 7932,
      "يسبيسي": 7933,
      "وابي": 7934,
      "فجاه": 7935,
      "اتتاسك": 7936,
      "شينو": 7937,
      "هتتبستسوقه": 7938,
      "هتتبستسومق": 7939,
      "كنقول": 7940,
      "ينسيدي": 7941,
      "تيينت": 7942,
      "بغينا": 7943,
      "بوندري": 7944,
      "فشعرها": 7945,
      "ليليا": 7946,
      "سيمانه": 7947,
      "فافور": 7948,
      "فينيس": 7949,
      "تفض": 7950,
      "ديان": 7951,
      "ايلس": 7952,
      "ديسيدي": 7953,
      "يكسبلو": 7954,
      "امام": 7955,
      "داوتريس": 7956,
      "بينسيس": 7957,
      "موستافا": 7958,
      "صاكها": 7959,
      "سييل": 7960,
      "وراك": 7961,
      "فيتير": 7962,
      "ريشيرشي": 7963,
      "دوراهم": 7964,
      "لفر": 7965,
      "كنه": 7966,
      "يكسبلا": 7967,
      "سامباي": 7968,
      "وراس": 7969,
      "مافي": 7970,
      "المدير": 7971,
      "نعسي": 7972,
      "منع": 7973,
      "وشكون": 7974,
      "بروه": 7975,
      "تيررور": 7976,
      "لييا": 7977,
      "يرحم": 7978,
      "نانسي": 7979,
      "سياوكس": 7980,
      "موهامميد": 7981,
      "واليد": 7982,
      "يرد": 7983,
      "شامي": 7984,
      "مابغاش": 7985,
      "سوار": 7986,
      "بابارايس": 7987,
      "ولاا": 7988,
      "موفيمينت": 7989,
      "ريبر": 7990,
      "متم": 7991,
      "لوسكي": 7992,
      "غفر": 7993,
      "ينيكس": 7994,
      "قريبه": 7995,
      "لعام": 7996,
      "هتتبستسوست": 7997,
      "ديسسين": 7998,
      "هونور": 7999,
      "يبو": 8000,
      "راشيد": 8001,
      "هتتبستسوفه": 8002,
      "فالينت": 8003,
      "باسكيت": 8004,
      "اتري": 8005,
      "وبليير": 8006,
      "هااااا": 8007,
      "مامي": 8008,
      "سليمه": 8009,
      "ثائر": 8010,
      "عتق": 8011,
      "مونا": 8012,
      "حشمانه": 8013,
      "سيق": 8014,
      "الواليد": 8015,
      "الزين": 8016,
      "كتبغي": 8017,
      "كااريس": 8018,
      "ستوديو": 8019,
      "تاريخ": 8020,
      "معك": 8021,
      "خونا": 8022,
      "كرين": 8023,
      "خفت": 8024,
      "وطلعات": 8025,
      "هتتبستسوبد": 8026,
      "شنا": 8027,
      "نبقي": 8028,
      "هومور": 8029,
      "بتدرررررر": 8030,
      "متاكد": 8031,
      "الدروج": 8032,
      "صحيح": 8033,
      "واخاا": 8034,
      "تاسيا": 8035,
      "ينيو": 8036,
      "امها": 8037,
      "نتم": 8038,
      "كايري": 8039,
      "جيوكس": 8040,
      "يماكين": 8041,
      "تفتح": 8042,
      "سميلي": 8043,
      "كاااا": 8044,
      "كنووس": 8045,
      "باره": 8046,
      "يبقي": 8047,
      "سوشي": 8048,
      "ونجي": 8049,
      "فاراه": 8050,
      "ناضو": 8051,
      "وافي": 8052,
      "تاكد": 8053,
      "كيشو": 8054,
      "عجبات": 8055,
      "درينك": 8056,
      "هاهاهاهاهاها": 8057,
      "تلاند": 8058,
      "سيكوي": 8059,
      "فكو": 8060,
      "اتل": 8061,
      "روكس": 8062,
      "فييننينت": 8063,
      "مبيا": 8064,
      "كاوا": 8065,
      "عليهوم": 8066,
      "بالعكس": 8067,
      "شني": 8068,
      "هضرت": 8069,
      "بوسيتيفي": 8070,
      "دانك": 8071,
      "سره": 8072,
      "هتتبستسوهو": 8073,
      "الاط": 8074,
      "مودا": 8075,
      "سويتش": 8076,
      "سيماينيس": 8077,
      "امتا": 8078,
      "اعت": 8079,
      "بوتتير": 8080,
      "فايسايت": 8081,
      "ءءء": 8082,
      "سومبر": 8083,
      "ثروو": 8084,
      "شيحاجه": 8085,
      "موز": 8086,
      "قووني": 8087,
      "زوز": 8088,
      "لجيهه": 8089,
      "وسع": 8090,
      "هتتبستسواك": 8091,
      "الفي": 8092,
      "وجرها": 8093,
      "ديدانس": 8094,
      "بوق": 8095,
      "مانيفيست": 8096,
      "جيممي": 8097,
      "مشاات": 8098,
      "بقل": 8099,
      "سوفري": 8100,
      "بعدو": 8101,
      "ركس": 8102,
      "انتيني": 8103,
      "بقاات": 8104,
      "حوايجك": 8105,
      "فوقها": 8106,
      "بخجل": 8107,
      "اض": 8108,
      "هامدولي": 8109,
      "عبي": 8110,
      "سيستيم": 8111,
      "بويينك": 8112,
      "غاتكون": 8113,
      "طكس": 8114,
      "بتوتر": 8115,
      "مبغاش": 8116,
      "دكتور": 8117,
      "هتت": 8118,
      "ريج": 8119,
      "ساعات": 8120,
      "برف": 8121,
      "بفب": 8122,
      "طز": 8123,
      "كتست": 8124,
      "لاني": 8125,
      "ماينس": 8126,
      "برومو": 8127,
      "دونك": 8128,
      "رتاحي": 8129,
      "كيزي": 8130,
      "ترولل": 8131,
      "ورجعت": 8132,
      "لبال": 8133,
      "ماهي": 8134,
      "فيكم": 8135,
      "سابيت": 8136,
      "ونفوللوو": 8137,
      "بلم": 8138,
      "بوتا": 8139,
      "فوسوس": 8140,
      "بلانسا": 8141,
      "هيلين": 8142,
      "يمبوانت": 8143,
      "يمان": 8144,
      "ينسون": 8145,
      "كيندير": 8146,
      "اتيف": 8147,
      "دراكون": 8148,
      "تيريد": 8149,
      "بارتوت": 8150,
      "ماسسي": 8151,
      "ماغريب": 8152,
      "استويلليمينت": 8153,
      "غيا": 8154,
      "بويدي": 8155,
      "قدرو": 8156,
      "سلاسسيس": 8157,
      "رينك": 8158,
      "بالانسي": 8159,
      "انون": 8160,
      "رومان": 8161,
      "فطريق": 8162,
      "رء": 8163,
      "سليان": 8164,
      "لانتا": 8165,
      "قواليت": 8166,
      "قويتي": 8167,
      "موان": 8168,
      "ابباري": 8169,
      "مينسي": 8170,
      "باراك": 8171,
      "سترايغت": 8172,
      "واااش": 8173,
      "يشوفو": 8174,
      "ميلك": 8175,
      "كومب": 8176,
      "كنوون": 8177,
      "غاليه": 8178,
      "ميج": 8179,
      "وسناء": 8180,
      "ابوسي": 8181,
      "رافي": 8182,
      "سريينك": 8183,
      "ارع": 8184,
      "بومبي": 8185,
      "توفيق": 8186,
      "سومبار": 8187,
      "غداو": 8188,
      "طوف": 8189,
      "سوندي": 8190,
      "سلوو": 8191,
      "بهار": 8192,
      "لوله": 8193,
      "اثر": 8194,
      "ينفورماتيون": 8195,
      "بقينا": 8196,
      "يييش": 8197,
      "دوراهمانيا": 8198,
      "وتك": 8199,
      "ينديا": 8200,
      "تيمور": 8201,
      "كوركيوس": 8202,
      "صالون": 8203,
      "لفلوس": 8204,
      "سابب": 8205,
      "فولوتيون": 8206,
      "تعيش": 8207,
      "راض": 8208,
      "تونيسي": 8209,
      "فاشي": 8210,
      "شناي": 8211,
      "ويم": 8212,
      "سونيس": 8213,
      "سدي": 8214,
      "صفيه": 8215,
      "فالطريق": 8216,
      "الثاني": 8217,
      "ستريامينك": 8218,
      "تهدني": 8219,
      "عليااا": 8220,
      "لهلا": 8221,
      "بعدم": 8222,
      "دعي": 8223,
      "طارت": 8224,
      "بوكا": 8225,
      "قوس": 8226,
      "ابابا": 8227,
      "نقي": 8228,
      "حاده": 8229,
      "رفي": 8230,
      "لوح": 8231,
      "ياسيين": 8232,
      "شغل": 8233,
      "نارد": 8234,
      "فرانسيس": 8235,
      "ساليم": 8236,
      "ماغات": 8237,
      "كوفيرنيمينت": 8238,
      "التير": 8239,
      "يسيمي": 8240,
      "نوفياوكس": 8241,
      "سمحيلي": 8242,
      "لبرا": 8243,
      "لياو": 8244,
      "بيث": 8245,
      "بيريود": 8246,
      "قصيره": 8247,
      "غمزها": 8248,
      "دفنه": 8249,
      "ظار": 8250,
      "قوييرو": 8251,
      "اركومينت": 8252,
      "دايللي": 8253,
      "حتاج": 8254,
      "تراسك": 8255,
      "صاحبي": 8256,
      "رينتر": 8257,
      "فبس": 8258,
      "كثير": 8259,
      "وعي": 8260,
      "سريتي": 8261,
      "وبر": 8262,
      "بياوت": 8263,
      "تامو": 8264,
      "بصعوبه": 8265,
      "سومم": 8266,
      "قققق": 8267,
      "يوروس": 8268,
      "فتف": 8269,
      "رنيم": 8270,
      "هتتبستسوفن": 8271,
      "افنان": 8272,
      "للع": 8273,
      "يرات": 8274,
      "ميام": 8275,
      "كنيس": 8276,
      "الشيطان": 8277,
      "بنظره": 8278,
      "اخت": 8279,
      "لابه": 8280,
      "واسس": 8281,
      "داددي": 8282,
      "نء": 8283,
      "یه": 8284,
      "كويلي": 8285,
      "ومشاو": 8286,
      "ترولي": 8287,
      "هامد": 8288,
      "هيمي": 8289,
      "العقل": 8290,
      "شكوون": 8291,
      "باسو": 8292,
      "الموس": 8293,
      "يكونو": 8294,
      "تاكين": 8295,
      "ستيونس": 8296,
      "ليستينينك": 8297,
      "حينت": 8298,
      "طره": 8299,
      "كالا": 8300,
      "جيهتو": 8301,
      "رينترير": 8302,
      "لادريسسي": 8303,
      "جهات": 8304,
      "ديكو": 8305,
      "تقد": 8306,
      "ترييد": 8307,
      "فيساتيون": 8308,
      "جامع": 8309,
      "احبيبتي": 8310,
      "يليا": 8311,
      "ماعندك": 8312,
      "اللوطو": 8313,
      "كيتح": 8314,
      "يكسو": 8315,
      "ريغتس": 8316,
      "هتتبستسوري": 8317,
      "حمرين": 8318,
      "نفر": 8319,
      "رادو": 8320,
      "افير": 8321,
      "كرك": 8322,
      "بوستير": 8323,
      "ساللينك": 8324,
      "حكس": 8325,
      "السم": 8326,
      "كمش": 8327,
      "كاتبكي": 8328,
      "تشد": 8329,
      "طلقو": 8330,
      "دايرا": 8331,
      "ميريام": 8332,
      "يلك": 8333,
      "مصعب": 8334,
      "ينيوس": 8335,
      "غندير": 8336,
      "صرب": 8337,
      "عشر": 8338,
      "تقدم": 8339,
      "عفاااك": 8340,
      "ديهورس": 8341,
      "تاسسي": 8342,
      "رقم": 8343,
      "ييسسير": 8344,
      "سبوتي": 8345,
      "بريسيس": 8346,
      "نويفي": 8347,
      "ووت": 8348,
      "دادي": 8349,
      "فسكي": 8350,
      "هتتبستسوبل": 8351,
      "ابليس": 8352,
      "ققع": 8353,
      "واهي": 8354,
      "ياقوت": 8355,
      "لاته": 8356,
      "ومبا": 8357,
      "زوجو": 8358,
      "بلين": 8359,
      "نوح": 8360,
      "هاببينينك": 8361,
      "هتتبستسوكل": 8362,
      "اكات": 8363,
      "هارري": 8364,
      "ستارتيد": 8365,
      "مونتا": 8366,
      "وعب": 8367,
      "توحشت": 8368,
      "الحا": 8369,
      "دولي": 8370,
      "اهمي": 8371,
      "بيجامه": 8372,
      "ونيا": 8373,
      "بلوقوير": 8374,
      "ولف": 8375,
      "وكانت": 8376,
      "شادا": 8377,
      "سيسك": 8378,
      "حرف": 8379,
      "وهادشي": 8380,
      "ريقوي": 8381,
      "كاميل": 8382,
      "زيب": 8383,
      "حص": 8384,
      "غني": 8385,
      "سريسي": 8386,
      "غانت": 8387,
      "سيفا": 8388,
      "ريسقوي": 8389,
      "لاقاو": 8390,
      "سبيري": 8391,
      "اااء": 8392,
      "ضربت": 8393,
      "جنون": 8394,
      "وصلها": 8395,
      "بييت": 8396,
      "ديسدي": 8397,
      "ريسا": 8398,
      "ثيرس": 8399,
      "غرام": 8400,
      "سلاي": 8401,
      "ووركس": 8402,
      "عارفها": 8403,
      "سلامه": 8404,
      "تكي": 8405,
      "ثيف": 8406,
      "وخلي": 8407,
      "اركان": 8408,
      "بورا": 8409,
      "مليون": 8410,
      "بابو": 8411,
      "انيموري": 8412,
      "كينز": 8413,
      "بروون": 8414,
      "ينشااللاه": 8415,
      "دغي": 8416,
      "نزيد": 8417,
      "عاوتاني": 8418,
      "ههههههههههه": 8419,
      "كدب": 8420,
      "مايللوت": 8421,
      "نبس": 8422,
      "بياست": 8423,
      "قصير": 8424,
      "كليس": 8425,
      "سيرايس": 8426,
      "يهديك": 8427,
      "سونترايري": 8428,
      "خوات": 8429,
      "ذرا": 8430,
      "ريشي": 8431,
      "فيبي": 8432,
      "سافينت": 8433,
      "ميسمو": 8434,
      "سيرفياو": 8435,
      "ققح": 8436,
      "باللون": 8437,
      "دانكير": 8438,
      "هاستا": 8439,
      "مسات": 8440,
      "هتتبستسويز": 8441,
      "نورم": 8442,
      "احبيبي": 8443,
      "هتتبستسواو": 8444,
      "سونفو": 8445,
      "سعيده": 8446,
      "هامدوليللاه": 8447,
      "عاااا": 8448,
      "الرجل": 8449,
      "لوجين": 8450,
      "بليو": 8451,
      "قيا": 8452,
      "غريبه": 8453,
      "ارريفير": 8454,
      "تجيب": 8455,
      "تخشات": 8456,
      "عالا": 8457,
      "نضت": 8458,
      "افوسادوس": 8459,
      "مسيو": 8460,
      "سفر": 8461,
      "ماكاي": 8462,
      "كيكو": 8463,
      "عاودات": 8464,
      "ثق": 8465,
      "كنعرف": 8466,
      "لوجه": 8467,
      "برات": 8468,
      "يكسبلي": 8469,
      "جيرو": 8470,
      "حماق": 8471,
      "هتتبستسوجو": 8472,
      "مشكيل": 8473,
      "فيار": 8474,
      "هتتبستسومب": 8475,
      "مويلل": 8476,
      "دينكا": 8477,
      "دخلها": 8478,
      "جسد": 8479,
      "ينات": 8480,
      "يمم": 8481,
      "سيسسيون": 8482,
      "سفي": 8483,
      "هتتبستسوفر": 8484,
      "واهيد": 8485,
      "بوء": 8486,
      "ابون": 8487,
      "يدوز": 8488,
      "لاحظ": 8489,
      "لخدمه": 8490,
      "قويير": 8491,
      "تلقا": 8492,
      "دتري": 8493,
      "ادري": 8494,
      "مارتين": 8495,
      "هاهاهاهاهاه": 8496,
      "تيليفونو": 8497,
      "روحي": 8498,
      "نيون": 8499,
      "والوو": 8500,
      "زوكس": 8501,
      "سريمي": 8502,
      "مونداي": 8503,
      "فيلمس": 8504,
      "هتتبستسوتس": 8505,
      "صداع": 8506,
      "هتتبستسولس": 8507,
      "لوكو": 8508,
      "بعمق": 8509,
      "واسنت": 8510,
      "بارتيس": 8511,
      "بتدددد": 8512,
      "سيلفيس": 8513,
      "ستوسك": 8514,
      "هتتبستسوبر": 8515,
      "مددد": 8516,
      "سنوو": 8517,
      "الاخيره": 8518,
      "ليكيند": 8519,
      "ماجور": 8520,
      "راز": 8521,
      "هتتبستسوكق": 8522,
      "سيدو": 8523,
      "يضحك": 8524,
      "بابيل": 8525,
      "هتتبستسووك": 8526,
      "حاجبها": 8527,
      "اوكوست": 8528,
      "فوسط": 8529,
      "سبيي": 8530,
      "يورس": 8531,
      "ولله": 8532,
      "حميد": 8533,
      "الذي": 8534,
      "كيبي": 8535,
      "وهاتي": 8536,
      "تبدا": 8537,
      "العمر": 8538,
      "راديوسيمبا": 8539,
      "العافيه": 8540,
      "دوها": 8541,
      "يريال": 8542,
      "القحبه": 8543,
      "ترانقويللي": 8544,
      "نايس": 8545,
      "ططح": 8546,
      "تيتو": 8547,
      "دوستور": 8548,
      "نوريك": 8549,
      "ديفرايت": 8550,
      "راديوسيمبافم": 8551,
      "لحيتو": 8552,
      "كامين": 8553,
      "هيفي": 8554,
      "ييف": 8555,
      "كابول": 8556,
      "راسيست": 8557,
      "قدامهم": 8558,
      "مكتب": 8559,
      "بتا": 8560,
      "لبن": 8561,
      "كاظم": 8562,
      "كرابه": 8563,
      "جمعت": 8564,
      "روا": 8565,
      "هازا": 8566,
      "يدور": 8567,
      "شيلسيا": 8568,
      "نوني": 8569,
      "فييت": 8570,
      "موينيي": 8571,
      "تونس": 8572,
      "حست": 8573,
      "فجي": 8574,
      "كيج": 8575,
      "ثيمي": 8576,
      "سوفياني": 8577,
      "ترقل": 8578,
      "يديي": 8579,
      "ينقوي": 8580,
      "اللوو": 8581,
      "لبسو": 8582,
      "هتتبستسوفت": 8583,
      "الاسود": 8584,
      "واتشيد": 8585,
      "رضوان": 8586,
      "نورماليمينت": 8587,
      "بارسيلونا": 8588,
      "بداك": 8589,
      "يهو": 8590,
      "هتتبستسومو": 8591,
      "هتتبستسونق": 8592,
      "ققء": 8593,
      "صااا": 8594,
      "لولي": 8595,
      "سلايم": 8596,
      "جوديا": 8597,
      "ديسس": 8598,
      "الكلب": 8599,
      "تجاو": 8600,
      "التيلي": 8601,
      "فرحت": 8602,
      "زوك": 8603,
      "لازاس": 8604,
      "شارينك": 8605,
      "زعزع": 8606,
      "سويفري": 8607,
      "تاتي": 8608,
      "خوا": 8609,
      "ديام": 8610,
      "وسين": 8611,
      "لييها": 8612,
      "سوسسيسس": 8613,
      "ماريني": 8614,
      "حداك": 8615,
      "الداخل": 8616,
      "ستريسس": 8617,
      "ميكو": 8618,
      "تيرريبلي": 8619,
      "صبعها": 8620,
      "ميساج": 8621,
      "فيوليتكار": 8622,
      "بهيسيقوي": 8623,
      "جبك": 8624,
      "جوييوكس": 8625,
      "هابو": 8626,
      "المسا": 8627,
      "شهور": 8628,
      "هونيستلي": 8629,
      "رش": 8630,
      "مابقا": 8631,
      "كراي": 8632,
      "ودخلو": 8633,
      "فحالك": 8634,
      "امار": 8635,
      "صاص": 8636,
      "كمي": 8637,
      "عيونها": 8638,
      "رم": 8639,
      "انير": 8640,
      "فرري": 8641,
      "المت": 8642,
      "هتتبستسودو": 8643,
      "سافيز": 8644,
      "جوينت": 8645,
      "مران": 8646,
      "شاكي": 8647,
      "نازله": 8648,
      "ميكنون": 8649,
      "تمن": 8650,
      "فريش": 8651,
      "فراببي": 8652,
      "تنت": 8653,
      "ربو": 8654,
      "اهاها": 8655,
      "سيتيس": 8656,
      "بيتيتس": 8657,
      "يث": 8658,
      "هاجا": 8659,
      "هتتبستسوسق": 8660,
      "كيتتي": 8661,
      "شعرهاا": 8662,
      "فيرم": 8663,
      "دمي": 8664,
      "ليكني": 8665,
      "جلاي": 8666,
      "افا": 8667,
      "عليش": 8668,
      "سركس": 8669,
      "تلبس": 8670,
      "ساودي": 8671,
      "فوتور": 8672,
      "جعل": 8673,
      "ديرا": 8674,
      "ونسلي": 8675,
      "تانتي": 8676,
      "فيوليتكارانيء": 8677,
      "الضحك": 8678,
      "صفوان": 8679,
      "سولتي": 8680,
      "غوست": 8681,
      "جسايس": 8682,
      "مرر": 8683,
      "كلك": 8684,
      "بيتم": 8685,
      "ريندري": 8686,
      "كووون": 8687,
      "بوليتيسال": 8688,
      "خشات": 8689,
      "هتتبستسوبج": 8690,
      "ترون": 8691,
      "حااا": 8692,
      "كضرب": 8693,
      "فييلس": 8694,
      "جسجس": 8695,
      "بليسسيد": 8696,
      "عمو": 8697,
      "كييك": 8698,
      "لاشي": 8699,
      "بطو": 8700,
      "خافش": 8701,
      "احت": 8702,
      "زمي": 8703,
      "واسي": 8704,
      "اشوف": 8705,
      "وختي": 8706,
      "بسا": 8707,
      "دينتس": 8708,
      "بلود": 8709,
      "سبوتيفي": 8710,
      "قدي": 8711,
      "تيبو": 8712,
      "هتتبستسوكر": 8713,
      "يرايس": 8714,
      "اردو": 8715,
      "الحل": 8716,
      "شهقات": 8717,
      "كبس": 8718,
      "هييو": 8719,
      "نفكر": 8720,
      "دارونني": 8721,
      "سيبير": 8722,
      "اخير": 8723,
      "شانتي": 8724,
      "بروكي": 8725,
      "ئيه": 8726,
      "شاشه": 8727,
      "عينيهم": 8728,
      "الغدا": 8729,
      "عريان": 8730,
      "كرر": 8731,
      "وياها": 8732,
      "ايمينت": 8733,
      "هوري": 8734,
      "ملها": 8735,
      "لونكوي": 8736,
      "اسكيب": 8737,
      "سارول": 8738,
      "بلانشي": 8739,
      "يتايت": 8740,
      "جط": 8741,
      "ووون": 8742,
      "ساوا": 8743,
      "كويدي": 8744,
      "قربو": 8745,
      "دراعو": 8746,
      "شوم": 8747,
      "عنه": 8748,
      "خدمت": 8749,
      "نكير": 8750,
      "ماانا": 8751,
      "فييك": 8752,
      "ميددلي": 8753,
      "مابقاتش": 8754,
      "ديبي": 8755,
      "نهضرو": 8756,
      "كسح": 8757,
      "نيسيس": 8758,
      "لارس": 8759,
      "ببير": 8760,
      "فوا": 8761,
      "هزي": 8762,
      "هتتبستسووس": 8763,
      "باسل": 8764,
      "جوما": 8765,
      "فيساكي": 8766,
      "كسيل": 8767,
      "كارلوس": 8768,
      "كروند": 8769,
      "مبغاتش": 8770,
      "جوسيبه": 8771,
      "ضعي": 8772,
      "عندوو": 8773,
      "السه": 8774,
      "ضرها": 8775,
      "خليل": 8776,
      "جويي": 8777,
      "ريبوبليس": 8778,
      "وييت": 8779,
      "عقلو": 8780,
      "دقايق": 8781,
      "زوس": 8782,
      "يوقع": 8783,
      "اببريسياتي": 8784,
      "يمس": 8785,
      "اتجاه": 8786,
      "هتتبستسواب": 8787,
      "درس": 8788,
      "خلق": 8789,
      "عندهاا": 8790,
      "يكسبليقوي": 8791,
      "ونرولل": 8792,
      "كوبيير": 8793,
      "محا": 8794,
      "ونيتي": 8795,
      "كارط": 8796,
      "وحل": 8797,
      "سونو": 8798,
      "يهز": 8799,
      "وتح": 8800,
      "افت": 8801,
      "فبلاصتو": 8802,
      "فيلت": 8803,
      "بيطار": 8804,
      "قفز": 8805,
      "خله": 8806,
      "فلس": 8807,
      "وتد": 8808,
      "كتجي": 8809,
      "انمشي": 8810,
      "ورقه": 8811,
      "اوتوم": 8812,
      "صغي": 8813,
      "بااس": 8814,
      "ديمانشي": 8815,
      "دااك": 8816,
      "تيو": 8817,
      "باغيه": 8818,
      "سامبايكن": 8819,
      "التحت": 8820,
      "تهرب": 8821,
      "بوستيد": 8822,
      "ستورييس": 8823,
      "فايسي": 8824,
      "جيتو": 8825,
      "سريدي": 8826,
      "ومره": 8827,
      "وساين": 8828,
      "سليمان": 8829,
      "كورا": 8830,
      "ونتو": 8831,
      "واجي": 8832,
      "بالشويه": 8833,
      "غايت": 8834,
      "والس": 8835,
      "يكسي": 8836,
      "العظيم": 8837,
      "السيده": 8838,
      "فيتس": 8839,
      "خبي": 8840,
      "كيقرب": 8841,
      "الصغيره": 8842,
      "وشعرها": 8843,
      "سوط": 8844,
      "يسترا": 8845,
      "مجه": 8846,
      "باستي": 8847,
      "كيضحكو": 8848,
      "عيانه": 8849,
      "ليمبريسسيون": 8850,
      "متت": 8851,
      "هانيه": 8852,
      "حله": 8853,
      "نعيمه": 8854,
      "لكا": 8855,
      "ينزل": 8856,
      "فيصل": 8857,
      "نونسا": 8858,
      "هتتبستسودس": 8859,
      "تاص": 8860,
      "لواد": 8861,
      "هاهي": 8862,
      "باق": 8863,
      "وتم": 8864,
      "جيمين": 8865,
      "بورد": 8866,
      "سلامتك": 8867,
      "وكاندا": 8868,
      "ويج": 8869,
      "باينا": 8870,
      "بارفايت": 8871,
      "بارفويس": 8872,
      "سورليوني": 8873,
      "ايدا": 8874,
      "توكا": 8875,
      "جوفي": 8876,
      "تقرب": 8877,
      "خدمتو": 8878,
      "حطت": 8879,
      "مونترير": 8880,
      "هتتبستسوقل": 8881,
      "يوسي": 8882,
      "اال": 8883,
      "فاتيون": 8884,
      "لخير": 8885,
      "نوه": 8886,
      "بهم": 8887,
      "ماال": 8888,
      "وهه": 8889,
      "بابير": 8890,
      "غيرك": 8891,
      "نعم": 8892,
      "غرق": 8893,
      "بكت": 8894,
      "زيبيتم": 8895,
      "سورانت": 8896,
      "لكبير": 8897,
      "الهدره": 8898,
      "خطوات": 8899,
      "شيبس": 8900,
      "بلومي": 8901,
      "وريكينال": 8902,
      "سبيند": 8903,
      "هتتبستسوسر": 8904,
      "شوميز": 8905,
      "بقايش": 8906,
      "هافينت": 8907,
      "ونيو": 8908,
      "دوله": 8909,
      "وبجيستي": 8910,
      "سومموناوت": 8911,
      "شط": 8912,
      "اتترا": 8913,
      "المح": 8914,
      "سيريوسلي": 8915,
      "شحاال": 8916,
      "مفا": 8917,
      "النظ": 8918,
      "بانديميس": 8919,
      "باربي": 8920,
      "يوفي": 8921,
      "ففيسيال": 8922,
      "يكسبليس": 8923,
      "تصاور": 8924,
      "لهيوري": 8925,
      "كامب": 8926,
      "اااااه": 8927,
      "ليكال": 8928,
      "كيزا": 8929,
      "يكسسلو": 8930,
      "ثوس": 8931,
      "هوشه": 8932,
      "جتايس": 8933,
      "سوممينس": 8934,
      "نيتفليكسفر": 8935,
      "ناقص": 8936,
      "مقابله": 8937,
      "قويسك": 8938,
      "وقعات": 8939,
      "ليسلام": 8940,
      "ديريستي": 8941,
      "حجبانها": 8942,
      "ينسا": 8943,
      "هتتبستسولو": 8944,
      "معين": 8945,
      "سيسسي": 8946,
      "فيريد": 8947,
      "سسور": 8948,
      "ديناه": 8949,
      "نقولك": 8950,
      "المشكل": 8951,
      "رتاح": 8952,
      "اليو": 8953,
      "بروي": 8954,
      "بريفاتي": 8955,
      "وقلبها": 8956,
      "رتا": 8957,
      "فالدروج": 8958,
      "مومياس": 8959,
      "كيوف": 8960,
      "ابريل": 8961,
      "راسهم": 8962,
      "فازي": 8963,
      "فوش": 8964,
      "دورت": 8965,
      "ءز": 8966,
      "تعلي": 8967,
      "ديفيينت": 8968,
      "فريدوما": 8969,
      "سونفيرساتيون": 8970,
      "عيل": 8971,
      "وجبد": 8972,
      "سست": 8973,
      "قبوس": 8974,
      "وففير": 8975,
      "لعي": 8976,
      "لؤي": 8977,
      "يسسويس": 8978,
      "كيبكي": 8979,
      "مونتير": 8980,
      "كينهج": 8981,
      "ماروساينس": 8982,
      "فريدوماشوكا": 8983,
      "تيتري": 8984,
      "تماع": 8985,
      "سوتيين": 8986,
      "فتيحه": 8987,
      "نشي": 8988,
      "نقص": 8989,
      "هييي": 8990,
      "ديبو": 8991,
      "هيلو": 8992,
      "بطب": 8993,
      "ديتايلس": 8994,
      "استرو": 8995,
      "ساننوت": 8996,
      "سارتي": 8997,
      "حركت": 8998,
      "ريتوييتس": 8999,
      "ياء": 9000,
      "كتكتكتكتكتكتكتكت": 9001,
      "وكتشوف": 9002,
      "الحي": 9003,
      "وندو": 9004,
      "ديساب": 9005,
      "شاين": 9006,
      "قدش": 9007,
      "يستاتيون": 9008,
      "جيا": 9009,
      "متح": 9010,
      "فحض": 9011,
      "هييا": 9012,
      "ترافيل": 9013,
      "نصف": 9014,
      "بونش": 9015,
      "اشار": 9016,
      "الوجه": 9017,
      "هتتبستسومس": 9018,
      "فرين": 9019,
      "فيهااا": 9020,
      "قرعه": 9021,
      "يانا": 9022,
      "يزي": 9023,
      "كاتجري": 9024,
      "عاودي": 9025,
      "نتو": 9026,
      "ليبي": 9027,
      "جاجاجا": 9028,
      "بيرفورمانسي": 9029,
      "هش": 9030,
      "كابدول": 9031,
      "عنيه": 9032,
      "اسسا": 9033,
      "وحش": 9034,
      "تهدن": 9035,
      "قليله": 9036,
      "مخنزره": 9037,
      "اثير": 9038,
      "معي": 9039,
      "للدوش": 9040,
      "مرتك": 9041,
      "سبرياد": 9042,
      "ذار": 9043,
      "كيبغي": 9044,
      "موير": 9045,
      "اوتو": 9046,
      "قدس": 9047,
      "الرا": 9048,
      "كيهضرو": 9049,
      "ستاتيس": 9050,
      "بيقوي": 9051,
      "ييير": 9052,
      "داكي": 9053,
      "باار": 9054,
      "ارتيست": 9055,
      "وخلاها": 9056,
      "بريم": 9057,
      "لليمينت": 9058,
      "فيستور": 9059,
      "ميتتينت": 9060,
      "جبيوكس": 9061,
      "می": 9062,
      "وكيف": 9063,
      "يقرب": 9064,
      "ليام": 9065,
      "ساسري": 9066,
      "ينكيني": 9067,
      "اراب": 9068,
      "نولي": 9069,
      "اااد": 9070,
      "اسسوسي": 9071,
      "بالغوات": 9072,
      "بونت": 9073,
      "بونهيور": 9074,
      "وخلا": 9075,
      "بناديم": 9076,
      "الحقيقه": 9077,
      "جاف": 9078,
      "قطق": 9079,
      "تامبي": 9080,
      "ضاح": 9081,
      "الوا": 9082,
      "شامبري": 9083,
      "كبو": 9084,
      "كيكون": 9085,
      "هتتبستسوبت": 9086,
      "هتتبستسولك": 9087,
      "نورث": 9088,
      "وبينينك": 9089,
      "ثيت": 9090,
      "مرها": 9091,
      "بيرري": 9092,
      "يكستري": 9093,
      "يورك": 9094,
      "ينتيريستينك": 9095,
      "شداتو": 9096,
      "علييها": 9097,
      "راندوم": 9098,
      "مصر": 9099,
      "احنا": 9100,
      "كوار": 9101,
      "جيونيس": 9102,
      "فاتيكو": 9103,
      "تدير": 9104,
      "ريفوس": 9105,
      "ورات": 9106,
      "سونستيتو": 9107,
      "سروسس": 9108,
      "بيريس": 9109,
      "ثوغتس": 9110,
      "جسور": 9111,
      "البوليس": 9112,
      "بلاني": 9113,
      "درايت": 9114,
      "مونكييد": 9115,
      "ايكون": 9116,
      "ولشي": 9117,
      "قلك": 9118,
      "ضيق": 9119,
      "وركي": 9120,
      "بلينك": 9121,
      "ندوي": 9122,
      "فووق": 9123,
      "كيشووف": 9124,
      "موانا": 9125,
      "بلون": 9126,
      "بروشاين": 9127,
      "لعندهم": 9128,
      "يانكو": 9129,
      "روكار": 9130,
      "تعلم": 9131,
      "ابدولازاس": 9132,
      "ديسبونيبلي": 9133,
      "لسا": 9134,
      "عمليه": 9135,
      "حمقه": 9136,
      "الفرصه": 9137,
      "ليميتي": 9138,
      "جلسه": 9139,
      "حملش": 9140,
      "زمرد": 9141,
      "افو": 9142,
      "القي": 9143,
      "البن": 9144,
      "ديسايس": 9145,
      "قحء": 9146,
      "ابدولازاسكابدول": 9147,
      "يشي": 9148,
      "هتتبستسوتك": 9149,
      "ادول": 9150,
      "ليرس": 9151,
      "مراه": 9152,
      "الوال": 9153,
      "سراس": 9154,
      "منوو": 9155,
      "يناهم": 9156,
      "صحا": 9157,
      "ميمبيرس": 9158,
      "لافي": 9159,
      "كامال": 9160,
      "دراما": 9161,
      "جبتي": 9162,
      "تافف": 9163,
      "ولادي": 9164,
      "بحكم": 9165,
      "بكه": 9166,
      "كتضحك": 9167,
      "ويزي": 9168,
      "باتتلي": 9169,
      "تضحك": 9170,
      "زايد": 9171,
      "فخر": 9172,
      "هالل": 9173,
      "ناسير": 9174,
      "المده": 9175,
      "مانش": 9176,
      "صعيبه": 9177,
      "لجهه": 9178,
      "درتو": 9179,
      "قيش": 9180,
      "كاتو": 9181,
      "خخخخ": 9182,
      "تويت": 9183,
      "رابهي": 9184,
      "تاريك": 9185,
      "غتمشي": 9186,
      "الصغير": 9187,
      "ينسريديبلي": 9188,
      "لديك": 9189,
      "جوز": 9190,
      "تبعها": 9191,
      "ناحيه": 9192,
      "بلاصتك": 9193,
      "مومينتس": 9194,
      "ظهرو": 9195,
      "شغف": 9196,
      "موروسسان": 9197,
      "هوش": 9198,
      "تجمعو": 9199,
      "صص": 9200,
      "كاء": 9201,
      "امبو": 9202,
      "اديل": 9203,
      "مورو": 9204,
      "مييتينك": 9205,
      "سيبتيمبري": 9206,
      "شاير": 9207,
      "فااش": 9208,
      "وبلا": 9209,
      "ماوفايسي": 9210,
      "كيريي": 9211,
      "بءا": 9212,
      "هاله": 9213,
      "تيشوف": 9214,
      "امال": 9215,
      "هزاتو": 9216,
      "ليناا": 9217,
      "ونزلات": 9218,
      "هارر": 9219,
      "بلز": 9220,
      "محتاج": 9221,
      "درولي": 9222,
      "حاولت": 9223,
      "وندا": 9224,
      "فسر": 9225,
      "نعست": 9226,
      "بارولي": 9227,
      "بذ": 9228,
      "سوبيني": 9229,
      "هتتبستسوفل": 9230,
      "ناات": 9231,
      "فالصالون": 9232,
      "قحق": 9233,
      "دادو": 9234,
      "رااسك": 9235,
      "تيكستي": 9236,
      "وكمل": 9237,
      "فييها": 9238,
      "عيطات": 9239,
      "توييتي": 9240,
      "ميلييو": 9241,
      "كيغوت": 9242,
      "عويشه": 9243,
      "توديس": 9244,
      "شاما": 9245,
      "موولول": 9246,
      "بربي": 9247,
      "بوررا": 9248,
      "زييد": 9249,
      "طلات": 9250,
      "كتنهج": 9251,
      "اكري": 9252,
      "وكيشوف": 9253,
      "جاتو": 9254,
      "فسس": 9255,
      "مزوج": 9256,
      "المدينه": 9257,
      "تهبط": 9258,
      "ديممينت": 9259,
      "يديرو": 9260,
      "نساي": 9261,
      "ينفيت": 9262,
      "نفسك": 9263,
      "شريستي": 9264,
      "فقلبها": 9265,
      "هاو": 9266,
      "راسون": 9267,
      "بريسسي": 9268,
      "جفو": 9269,
      "ارميس": 9270,
      "براين": 9271,
      "اوتور": 9272,
      "جاوبات": 9273,
      "ثره": 9274,
      "وشدات": 9275,
      "ديستين": 9276,
      "عوج": 9277,
      "فيسس": 9278,
      "سوساس": 9279,
      "ولان": 9280,
      "بدلو": 9281,
      "بامبازوكا": 9282,
      "صدي": 9283,
      "تحني": 9284,
      "فضل": 9285,
      "ديدي": 9286,
      "ديده": 9287,
      "دفعها": 9288,
      "موسيو": 9289,
      "یت": 9290,
      "لاول": 9291,
      "كنسمع": 9292,
      "بللي": 9293,
      "بتددد": 9294,
      "وووش": 9295,
      "ميتو": 9296,
      "ميره": 9297,
      "كتشووف": 9298,
      "بانني": 9299,
      "قاري": 9300,
      "قاها": 9301,
      "تبت": 9302,
      "سغ": 9303,
      "لاركينت": 9304,
      "وناس": 9305,
      "كيمشي": 9306,
      "اللوله": 9307,
      "قتلو": 9308,
      "ساتورداي": 9309,
      "واللاهي": 9310,
      "وحلات": 9311,
      "فكري": 9312,
      "بيبو": 9313,
      "داديس": 9314,
      "شيط": 9315,
      "ومد": 9316,
      "فطرو": 9317,
      "نيرس": 9318,
      "وكيت": 9319,
      "باكا": 9320,
      "وستوب": 9321,
      "اناااا": 9322,
      "سيمون": 9323,
      "بويري": 9324,
      "شاوس": 9325,
      "ينسولتي": 9326,
      "كررر": 9327,
      "هني": 9328,
      "ولترا": 9329,
      "هضرتو": 9330,
      "قادره": 9331,
      "ئيا": 9332,
      "ينجيري": 9333,
      "بوينو": 9334,
      "كاانت": 9335,
      "يييين": 9336,
      "فايل": 9337,
      "عارفاه": 9338,
      "يرون": 9339,
      "السما": 9340,
      "كرانديس": 9341,
      "روننينك": 9342,
      "تااا": 9343,
      "اننونس": 9344,
      "ريلياسي": 9345,
      "التر": 9346,
      "بتش": 9347,
      "خاشي": 9348,
      "لوندي": 9349,
      "موولولوبرا": 9350,
      "نوق": 9351,
      "جاز": 9352,
      "يموت": 9353,
      "حتاا": 9354,
      "خوو": 9355,
      "تقدري": 9356,
      "جوستين": 9357,
      "ضعف": 9358,
      "فليكس": 9359,
      "ينفيتي": 9360,
      "جيكس": 9361,
      "بحرقه": 9362,
      "فهي": 9363,
      "لقدام": 9364,
      "ازاد": 9365,
      "نتااا": 9366,
      "ينسولتير": 9367,
      "العابدين": 9368,
      "قار": 9369,
      "ترافيس": 9370,
      "موولولوبرامويلل": 9371,
      "تغير": 9372,
      "لغر": 9373,
      "هااه": 9374,
      "ناوا": 9375,
      "بلد": 9376,
      "جوليا": 9377,
      "يولي": 9378,
      "خام": 9379,
      "ريدو": 9380,
      "ماكره": 9381,
      "فيغ": 9382,
      "داق": 9383,
      "تسد": 9384,
      "جونككوك": 9385,
      "فولوير": 9386,
      "حقك": 9387,
      "ميق": 9388,
      "ينكتون": 9389,
      "هتتبستسويج": 9390,
      "دروك": 9391,
      "لغدا": 9392,
      "بروفيتي": 9393,
      "مراق": 9394,
      "هذي": 9395,
      "ويفير": 9396,
      "وتين": 9397,
      "اوث": 9398,
      "عارفك": 9399,
      "بتت": 9400,
      "ورل": 9401,
      "نونت": 9402,
      "سيمانا": 9403,
      "نيفو": 9404,
      "موب": 9405,
      "ضحكي": 9406,
      "لوندون": 9407,
      "ستراتي": 9408,
      "وهاتيفير": 9409,
      "الكس": 9410,
      "بيشو": 9411,
      "اريس": 9412,
      "سوببور": 9413,
      "حاف": 9414,
      "وقفها": 9415,
      "بوليتيسس": 9416,
      "ليغتس": 9417,
      "شاننيل": 9418,
      "ناخد": 9419,
      "تاق": 9420,
      "قولها": 9421,
      "كتاب": 9422,
      "سموكي": 9423,
      "طرو": 9424,
      "سامبا": 9425,
      "افونس": 9426,
      "ضرباتو": 9427,
      "باتارد": 9428,
      "عويناتها": 9429,
      "ريبيوديتير": 9430,
      "سوبر": 9431,
      "ساعا": 9432,
      "ينساني": 9433,
      "وسيف": 9434,
      "نظرات": 9435,
      "لازوني": 9436,
      "هامدوليلاه": 9437,
      "نبدل": 9438,
      "هس": 9439,
      "ليمب": 9440,
      "معط": 9441,
      "وركاني": 9442,
      "سورريست": 9443,
      "جفيينس": 9444,
      "حقو": 9445,
      "رتاج": 9446,
      "عبر": 9447,
      "دييك": 9448,
      "مازي": 9449,
      "ريتورن": 9450,
      "طقق": 9451,
      "باكار": 9452,
      "وترا": 9453,
      "مددر": 9454,
      "استوال": 9455,
      "خليت": 9456,
      "دونيا": 9457,
      "فالع": 9458,
      "جمعي": 9459,
      "جابان": 9460,
      "خول": 9461,
      "واني": 9462,
      "ميور": 9463,
      "ديسسي": 9464,
      "بغيو": 9465,
      "مسؤ": 9466,
      "روسك": 9467,
      "بعنف": 9468,
      "غض": 9469,
      "جوتي": 9470,
      "مووت": 9471,
      "بلايس": 9472,
      "يكسام": 9473,
      "وجدي": 9474,
      "كراتويت": 9475,
      "روكاروكا": 9476,
      "قيف": 9477,
      "حالتو": 9478,
      "ياسميني": 9479,
      "تيللينك": 9480,
      "اسروسس": 9481,
      "برونو": 9482,
      "ليكيد": 9483,
      "قعغ": 9484,
      "ريحانه": 9485,
      "اننيس": 9486,
      "روق": 9487,
      "سمعي": 9488,
      "ينفويير": 9489,
      "اباند": 9490,
      "ونتير": 9491,
      "الاغ": 9492,
      "سوففيت": 9493,
      "ستوني": 9494,
      "فومير": 9495,
      "العلا": 9496,
      "تمات": 9497,
      "كترمش": 9498,
      "وازنه": 9499,
      "ييسسيرسكي": 9500,
      "تمر": 9501,
      "خج": 9502,
      "تيكي": 9503,
      "وتسيدي": 9504,
      "كابري": 9505,
      "مسدو": 9506,
      "بيليت": 9507,
      "عاط": 9508,
      "مرتاحه": 9509,
      "وارا": 9510,
      "لوشي": 9511,
      "بلها": 9512,
      "تسكت": 9513,
      "ريتروفير": 9514,
      "هتتبستسورك": 9515,
      "كلات": 9516,
      "يماكيس": 9517,
      "موكيوار": 9518,
      "ببطئ": 9519,
      "زح": 9520,
      "لمره": 9521,
      "هوماين": 9522,
      "شارليي": 9523,
      "للاسف": 9524,
      "مصد": 9525,
      "اببار": 9526,
      "باكيستان": 9527,
      "سيمبليمينت": 9528,
      "ندوز": 9529,
      "هاذي": 9530,
      "بروبا": 9531,
      "ارتيسلي": 9532,
      "فيدير": 9533,
      "ديسو": 9534,
      "نوار": 9535,
      "ميسساكيس": 9536,
      "نايرو": 9537,
      "متل": 9538,
      "سونسيبت": 9539,
      "طوال": 9540,
      "ايلليورس": 9541,
      "حليت": 9542,
      "وداكشي": 9543,
      "سييم": 9544,
      "بروكين": 9545,
      "اسسيسس": 9546,
      "نظره": 9547,
      "يوسسيف": 9548,
      "كوبييرنو": 9549,
      "تجري": 9550,
      "حطي": 9551,
      "شول": 9552,
      "سنانها": 9553,
      "تنهدت": 9554,
      "هتتبستسواس": 9555,
      "ماهريزءء": 9556,
      "مزاال": 9557,
      "غوز": 9558,
      "يالا": 9559,
      "واجد": 9560,
      "وبفي": 9561,
      "المشي": 9562,
      "ريسسانت": 9563,
      "شاافت": 9564,
      "ناتي": 9565,
      "موهام": 9566,
      "لوسكدوون": 9567,
      "بورك": 9568,
      "لارميس": 9569,
      "سالاو": 9570,
      "كييف": 9571,
      "رودي": 9572,
      "المينتي": 9573,
      "فيستيون": 9574,
      "طلبات": 9575,
      "كنيي": 9576,
      "نادير": 9577,
      "جاكيط": 9578,
      "يفينينك": 9579,
      "مبقيتش": 9580,
      "بيغ": 9581,
      "جلها": 9582,
      "بكيه": 9583,
      "طلقي": 9584,
      "فاهمه": 9585,
      "معنقها": 9586,
      "راااا": 9587,
      "واصل": 9588,
      "ناف": 9589,
      "بعدي": 9590,
      "عرفاتو": 9591,
      "كاامل": 9592,
      "فرك": 9593,
      "سريري": 9594,
      "حلوه": 9595,
      "سومبليقو": 9596,
      "ماغان": 9597,
      "درنا": 9598,
      "ملكه": 9599,
      "دريب": 9600,
      "سالما": 9601,
      "هاندس": 9602,
      "شمن": 9603,
      "الواحد": 9604,
      "حلت": 9605,
      "فلق": 9606,
      "ديمو": 9607,
      "كيفيس": 9608,
      "كوستا": 9609,
      "سمس": 9610,
      "كسين": 9611,
      "يستوس": 9612,
      "اليفي": 9613,
      "ادديد": 9614,
      "قيب": 9615,
      "كرام": 9616,
      "حاو": 9617,
      "كيوا": 9618,
      "توح": 9619,
      "يونيسينجيري": 9620,
      "غيب": 9621,
      "هههههههههه": 9622,
      "ويلليام": 9623,
      "كراتي": 9624,
      "خدمتي": 9625,
      "سادياو": 9626,
      "كوتوكا": 9627,
      "وضحك": 9628,
      "ليمين": 9629,
      "ندا": 9630,
      "تاد": 9631,
      "الكسوه": 9632,
      "بيرسونال": 9633,
      "وكيفاش": 9634,
      "ماكانش": 9635,
      "طم": 9636,
      "هارام": 9637,
      "بيرميس": 9638,
      "ريتارد": 9639,
      "هءغ": 9640,
      "جنان": 9641,
      "بينسيز": 9642,
      "ماعنديش": 9643,
      "سريستي": 9644,
      "بروميسي": 9645,
      "سرياتي": 9646,
      "فيليكس": 9647,
      "افضل": 9648,
      "بينتي": 9649,
      "كايا": 9650,
      "فلت": 9651,
      "سلوون": 9652,
      "بكو": 9653,
      "التح": 9654,
      "تاخد": 9655,
      "اااار": 9656,
      "كينني": 9657,
      "شولي": 9658,
      "تحيد": 9659,
      "ضرك": 9660,
      "فايث": 9661,
      "ستودينتس": 9662,
      "مفي": 9663,
      "ساحبي": 9664,
      "ليكسي": 9665,
      "اببريندري": 9666,
      "ستيور": 9667,
      "لبلاد": 9668,
      "هيمو": 9669,
      "تابير": 9670,
      "ئب": 9671,
      "ينكير": 9672,
      "تكلم": 9673,
      "سوممينتايريس": 9674,
      "وتن": 9675,
      "البرا": 9676,
      "ديمون": 9677,
      "الاث": 9678,
      "متخافيش": 9679,
      "ينور": 9680,
      "كينان": 9681,
      "فولايت": 9682,
      "فاريس": 9683,
      "عاديه": 9684,
      "يستري": 9685,
      "كرز": 9686,
      "ثانيه": 9687,
      "ظات": 9688,
      "الونك": 9689,
      "ريفين": 9690,
      "هتتبستسويا": 9691,
      "ليسيا": 9692,
      "وعاود": 9693,
      "وينس": 9694,
      "ديسسوسس": 9695,
      "ديرايس": 9696,
      "وساما": 9697,
      "هيتي": 9698,
      "قوليه": 9699,
      "ومين": 9700,
      "بريللي": 9701,
      "بغييت": 9702,
      "ريحتو": 9703,
      "فوجها": 9704,
      "زيداني": 9705,
      "يحس": 9706,
      "كيشي": 9707,
      "هتتبستسوسل": 9708,
      "سورب": 9709,
      "يوان": 9710,
      "مورتي": 9711,
      "سمه": 9712,
      "شمال": 9713,
      "تركل": 9714,
      "بهوسيما": 9715,
      "بادا": 9716,
      "كادا": 9717,
      "فايا": 9718,
      "حدها": 9719,
      "يمبر": 9720,
      "تايلور": 9721,
      "يدوساتيون": 9722,
      "اولد": 9723,
      "اتتاس": 9724,
      "هتتبستسوكت": 9725,
      "يسسيز": 9726,
      "نازلين": 9727,
      "سونسترو": 9728,
      "فوذ": 9729,
      "بتيس": 9730,
      "ومر": 9731,
      "شييف": 9732,
      "لانكوي": 9733,
      "السر": 9734,
      "هكس": 9735,
      "ينتر": 9736,
      "معلومات": 9737,
      "اسب": 9738,
      "لسه": 9739,
      "سيليبراتي": 9740,
      "وهياا": 9741,
      "هبطت": 9742,
      "ثيل": 9743,
      "سسوت": 9744,
      "تيفا": 9745,
      "فحالي": 9746,
      "كاريبو": 9747,
      "ليفيربول": 9748,
      "الغر": 9749,
      "مافيا": 9750,
      "كبوب": 9751,
      "لفون": 9752,
      "بييا": 9753,
      "بوريس": 9754,
      "بكد": 9755,
      "وباما": 9756,
      "فبلاصه": 9757,
      "لونا": 9758,
      "مكاي": 9759,
      "سوليور": 9760,
      "روبتيون": 9761,
      "البوران": 9762,
      "يشوفها": 9763,
      "تموت": 9764,
      "بالخلعه": 9765,
      "كينزا": 9766,
      "مييس": 9767,
      "توبي": 9768,
      "العربي": 9769,
      "ريترو": 9770,
      "يريو": 9771,
      "يدس": 9772,
      "بيرسونا": 9773,
      "نسولك": 9774,
      "هانيا": 9775,
      "ايع": 9776,
      "وسان": 9777,
      "فورسيس": 9778,
      "دايلليورس": 9779,
      "غضب": 9780,
      "ييلل": 9781,
      "بوزي": 9782,
      "اعمي": 9783,
      "جيسبري": 9784,
      "ردات": 9785,
      "المون": 9786,
      "يدفع": 9787,
      "هءهءه": 9788,
      "سوكك": 9789,
      "تاهيا": 9790,
      "اددريسس": 9791,
      "عاصم": 9792,
      "بيم": 9793,
      "ميات": 9794,
      "هيلد": 9795,
      "مته": 9796,
      "ديكر": 9797,
      "بويت": 9798,
      "رشيد": 9799,
      "الدوش": 9800,
      "سيزي": 9801,
      "وبد": 9802,
      "جيننيي": 9803,
      "لقيتو": 9804,
      "ليسيتاتيونس": 9805,
      "سينا": 9806,
      "طقه": 9807,
      "مووو": 9808,
      "ماسو": 9809,
      "برر": 9810,
      "المشا": 9811,
      "ضرني": 9812,
      "بلاصتي": 9813,
      "لييل": 9814,
      "كيص": 9815,
      "بريسيدينتي": 9816,
      "وداك": 9817,
      "كيتسنا": 9818,
      "نيكيوا": 9819,
      "لوسس": 9820,
      "ميقوي": 9821,
      "مبتس": 9822,
      "مارقوي": 9823,
      "بوندو": 9824,
      "عطاتها": 9825,
      "ووز": 9826,
      "كلما": 9827,
      "يامي": 9828,
      "ياسسيني": 9829,
      "فاين": 9830,
      "اكم": 9831,
      "كولدين": 9832,
      "لحمها": 9833,
      "سيمبار": 9834,
      "قوارانتيني": 9835,
      "تانيه": 9836,
      "مقا": 9837,
      "ستافف": 9838,
      "كيزيد": 9839,
      "راجا": 9840,
      "جوش": 9841,
      "نامج": 9842,
      "دورها": 9843,
      "زينا": 9844,
      "لهوممي": 9845,
      "ايميس": 9846,
      "كتص": 9847,
      "ابط": 9848,
      "وووس": 9849,
      "اليف": 9850,
      "للمغرب": 9851,
      "الحرام": 9852,
[...]
